{
  "version": "1.0",
  "truncation": null,
  "padding": null,
  "added_tokens": [
    {
      "id": 0,
      "content": "<|pad|>",
      "single_word": false,
      "lstrip": false,
      "rstrip": false,
      "normalized": false,
      "special": true
    },
    {
      "id": 1,
      "content": "<|unk|>",
      "single_word": false,
      "lstrip": false,
      "rstrip": false,
      "normalized": false,
      "special": true
    },
    {
      "id": 2,
      "content": "<|bos|>",
      "single_word": false,
      "lstrip": false,
      "rstrip": false,
      "normalized": false,
      "special": true
    },
    {
      "id": 3,
      "content": "<|eos|>",
      "single_word": false,
      "lstrip": false,
      "rstrip": false,
      "normalized": false,
      "special": true
    },
    {
      "id": 4,
      "content": "<|luau|>",
      "single_word": false,
      "lstrip": false,
      "rstrip": false,
      "normalized": false,
      "special": true
    },
    {
      "id": 5,
      "content": "<|cpp|>",
      "single_word": false,
      "lstrip": false,
      "rstrip": false,
      "normalized": false,
      "special": true
    },
    {
      "id": 6,
      "content": "<|csharp|>",
      "single_word": false,
      "lstrip": false,
      "rstrip": false,
      "normalized": false,
      "special": true
    }
  ],
  "normalizer": null,
  "pre_tokenizer": {
    "type": "ByteLevel",
    "add_prefix_space": false,
    "trim_offsets": true,
    "use_regex": true
  },
  "post_processor": null,
  "decoder": {
    "type": "ByteLevel",
    "add_prefix_space": true,
    "trim_offsets": true,
    "use_regex": true
  },
  "model": {
    "type": "BPE",
    "dropout": null,
    "unk_token": "<|unk|>",
    "continuing_subword_prefix": null,
    "end_of_word_suffix": null,
    "fuse_unk": false,
    "byte_fallback": false,
    "ignore_merges": false,
    "vocab": {
      "<|pad|>": 0,
      "<|unk|>": 1,
      "<|bos|>": 2,
      "<|eos|>": 3,
      "<|luau|>": 4,
      "<|cpp|>": 5,
      "<|csharp|>": 6,
      "\"": 7,
      "#": 8,
      "&": 9,
      "(": 10,
      ")": 11,
      "*": 12,
      "+": 13,
      ",": 14,
      "-": 15,
      ".": 16,
      "/": 17,
      "0": 18,
      "1": 19,
      "2": 20,
      "3": 21,
      "4": 22,
      "5": 23,
      "6": 24,
      "7": 25,
      "8": 26,
      "9": 27,
      ":": 28,
      ";": 29,
      "<": 30,
      "=": 31,
      ">": 32,
      "A": 33,
      "B": 34,
      "C": 35,
      "D": 36,
      "E": 37,
      "F": 38,
      "G": 39,
      "H": 40,
      "I": 41,
      "J": 42,
      "K": 43,
      "L": 44,
      "M": 45,
      "N": 46,
      "O": 47,
      "P": 48,
      "Q": 49,
      "R": 50,
      "S": 51,
      "T": 52,
      "U": 53,
      "V": 54,
      "W": 55,
      "X": 56,
      "Y": 57,
      "[": 58,
      "]": 59,
      "a": 60,
      "b": 61,
      "c": 62,
      "d": 63,
      "e": 64,
      "f": 65,
      "g": 66,
      "h": 67,
      "i": 68,
      "k": 69,
      "l": 70,
      "m": 71,
      "n": 72,
      "o": 73,
      "p": 74,
      "q": 75,
      "r": 76,
      "s": 77,
      "t": 78,
      "u": 79,
      "v": 80,
      "w": 81,
      "x": 82,
      "y": 83,
      "z": 84,
      "{": 85,
      "|": 86,
      "}": 87,
      "Ċ": 88,
      "Ġ": 89,
      "ĠĠ": 90,
      "er": 91,
      "ĠĠĠĠ": 92,
      "ĠĠĠ": 93,
      "Ġ=": 94,
      "pl": 95,
      "re": 96,
      "ay": 97,
      "ayer": 98,
      "player": 99,
      "ar": 100,
      "to": 101,
      "al": 102,
      "en": 103,
      "ĊĠĠĠ": 104,
      "ĊĠĠĠĠ": 105,
      "in": 106,
      "at": 107,
      "on": 108,
      "st": 109,
      "ĊĠĠĠĠĠĠĠ": 110,
      "Ġre": 111,
      "ad": 112,
      "ti": 113,
      "lo": 114,
      "se": 115,
      "ed": 116,
      "ic": 117,
      "loc": 118,
      "Re": 119,
      "local": 120,
      "un": 121,
      ");": 122,
      "ul": 123,
      "au": 124,
      "tor": 125,
      "(\"": 126,
      "ard": 127,
      "art": 128,
      "part": 129,
      "Ġ\"": 130,
      "Fi": 131,
      "<|": 132,
      "|>": 133,
      "ue": 134,
      "ward": 135,
      "Fin": 136,
      "ne": 137,
      "tion": 138,
      "Find": 139,
      "end": 140,
      "Ġ1": 141,
      "Ġt": 142,
      "co": 143,
      "if": 144,
      "ch": 145,
      "erv": 146,
      "ase": 147,
      "Le": 148,
      "\",": 149,
      "Serv": 150,
      "ur": 151,
      "Ġ{": 152,
      "Ad": 153,
      "Add": 154,
      "stat": 155,
      "erstat": 156,
      "aderstat": 157,
      "Leaderstat": 158,
      "Leaderstats": 159,
      "ĠLeaderstats": 160,
      "Ġplayer": 161,
      "ent": 162,
      "ge": 163,
      "Ġif": 164,
      "age": 165,
      "ction": 166,
      "mb": 167,
      "ated": 168,
      "Con": 169,
      "ice": 170,
      "Ġ0": 171,
      "lu": 172,
      "il": 173,
      "ol": 174,
      "Ġ>": 175,
      "\")": 176,
      "unction": 177,
      "luau": 178,
      "Stor": 179,
      "plic": 180,
      "Replic": 181,
      "atedStor": 182,
      "ReplicatedStor": 183,
      "ReplicatedStorage": 184,
      "ĠReplicatedStorage": 185,
      "mo": 186,
      "Server": 187,
      "sul": 188,
      "Ġresul": 189,
      "Ġresult": 190,
      "hil": 191,
      "rst": 192,
      "First": 193,
      "Chil": 194,
      "FindFirst": 195,
      "Child": 196,
      "FindFirstChild": 197,
      "Pr": 198,
      "On": 199,
      "an": 200,
      "OnServer": 201,
      "comb": 202,
      "combo": 203,
      "Ġ>=": 204,
      "ĠĠĠĠĠĠĠ": 205,
      "ĊĠĠĠĠĠĠĠĠĠĠĠ": 206,
      "Price": 207,
      "ins": 208,
      "Ve": 209,
      "ce": 210,
      "Po": 211,
      "oll": 212,
      "Mul": 213,
      "ier": 214,
      "plier": 215,
      "tiplier": 216,
      "Multiplier": 217,
      "new": 218,
      "tal": 219,
      "auto": 220,
      "total": 221,
      "totalPrice": 222,
      "Ġth": 223,
      "Ġthen": 224,
      "av": 225,
      "Ġ(": 226,
      "Reward": 227,
      "chase": 228,
      "urchase": 229,
      "Ġ*": 230,
      "function": 231,
      "Ġ}": 232,
      "ct": 233,
      "nect": 234,
      "Connect": 235,
      "Ġ+": 236,
      "ctor": 237,
      "ĠVe": 238,
      "ĠVector": 239,
      "pg": 240,
      "Ġ2": 241,
      "rad": 242,
      "pgrad": 243,
      "pgrade": 244,
      "Ġs": 245,
      "Co": 246,
      "Ġlocal": 247,
      "el": 248,
      "\");": 249,
      "Ge": 250,
      "purchase": 251,
      "vent": 252,
      "Event": 253,
      "Ġend": 254,
      "ĠtotalPrice": 255,
      "unt": 256,
      "mount": 257,
      "OnServerEvent": 258,
      "Amount": 259,
      "que": 260,
      "Ġcombo": 261,
      "sted": 262,
      "quested": 263,
      "questedAmount": 264,
      "Ġreward": 265,
      "Ġr": 266,
      "Fire": 267,
      "Ġb": 268,
      "Cl": 269,
      "else": 270,
      "Ġelse": 271,
      "int": 272,
      "ient": 273,
      "pa": 274,
      "or": 275,
      "aseReward": 276,
      "Client": 277,
      "spa": 278,
      "In": 279,
      "alue": 280,
      "een": 281,
      "ween": 282,
      "ĠrequestedAmount": 283,
      "FireClient": 284,
      "var": 285,
      "tore": 286,
      "tur": 287,
      "turn": 288,
      "te": 289,
      "Ġpart": 290,
      "Ġ5": 291,
      "ĠbaseReward": 292,
      "Ġpurchase": 293,
      "ĠW": 294,
      "kspa": 295,
      "orkspa": 296,
      "orkspace": 297,
      "ĠWorkspace": 298,
      "Ġ3": 299,
      "rue": 300,
      "Ġtrue": 301,
      "Ġreturn": 302,
      "ke": 303,
      "ava": 304,
      "upgrade": 305,
      "ig": 306,
      "Lava": 307,
      "Coins": 308,
      "ing": 309,
      "ms": 310,
      "core": 311,
      "ints": 312,
      "Score": 313,
      "Points": 314,
      "Gems": 315,
      "Wins": 316,
      "Ġf": 317,
      "alse": 318,
      "Ġfalse": 319,
      "ng": 320,
      "fig": 321,
      "Config": 322,
      "Ġ-": 323,
      "Pl": 324,
      "Us": 325,
      "User": 326,
      "Id": 327,
      "UserId": 328,
      "mote": 329,
      "are": 330,
      "value": 331,
      "Ġ4": 332,
      "sh": 333,
      "pp": 334,
      "::": 335,
      "Ġch": 336,
      "ance": 337,
      "Ġrng": 338,
      "Ġchance": 339,
      "si": 340,
      "ĠT": 341,
      "Posi": 342,
      "Position": 343,
      "sing": 344,
      "Ġ10": 345,
      "Ro": 346,
      "Ġstore": 347,
      "Ġvalue": 348,
      "En": 349,
      "Function": 350,
      "Inv": 351,
      "oke": 352,
      "Invoke": 353,
      "ut": 354,
      "nc": 355,
      "do": 356,
      "OnServerInvoke": 357,
      "ion": 358,
      "ation": 359,
      "csh": 360,
      "arp": 361,
      "csharp": 362,
      "Sp": 363,
      "};": 364,
      "cpp": 365,
      "de": 366,
      "Ġupgrade": 367,
      "ando": 368,
      "andom": 369,
      "Ġ6": 370,
      "Ġauto": 371,
      "tA": 372,
      "Ne": 373,
      "ty": 374,
      "Ea": 375,
      "ĠTween": 376,
      "Easing": 377,
      "Service": 378,
      "sy": 379,
      "Remote": 380,
      "Upgrade": 381,
      "tation": 382,
      "Ġsav": 383,
      "Rotation": 384,
      "am": 385,
      "xt": 386,
      "(-": 387,
      "Ġnew": 388,
      "Coll": 389,
      "tAsy": 390,
      "tAsync": 391,
      "um": 392,
      "Ġ7": 393,
      "Play": 394,
      "Ġ<": 395,
      "und": 396,
      "),": 397,
      "reward": 398,
      "roll": 399,
      "Ġroll": 400,
      "Dat": 401,
      "Data": 402,
      "Next": 403,
      "Can": 404,
      "ide": 405,
      "Collide": 406,
      "CanCollide": 407,
      "ri": 408,
      "An": 409,
      "()": 410,
      "Nu": 411,
      "mber": 412,
      "Number": 413,
      "Store": 414,
      "DataStore": 415,
      "Ġsaved": 416,
      "&]": 417,
      "[&]": 418,
      "Ġ=>": 419,
      "Player": 420,
      "pt": 421,
      "Pare": 422,
      "nt": 423,
      "Parent": 424,
      "bl": 425,
      "Lo": 426,
      "ick": 427,
      "Se": 428,
      "ĠrewardFunction": 429,
      "abl": 430,
      "abled": 431,
      "Roll": 432,
      "load": 433,
      "cl": 434,
      "Enabled": 435,
      "ton": 436,
      "utton": 437,
      "amage": 438,
      "Damage": 439,
      "cri": 440,
      "cript": 441,
      "[&](": 442,
      "Value": 443,
      "ĠEn": 444,
      "ĠEnum": 445,
      "Ġvar": 446,
      "rint": 447,
      "Pad": 448,
      "click": 449,
      "Ġ8": 450,
      "mat": 451,
      "random": 452,
      "math": 453,
      "Ġmath": 454,
      "rewardFunction": 455,
      "Sprint": 456,
      "cti": 457,
      "vated": 458,
      "ctivated": 459,
      "Activated": 460,
      "ity": 461,
      "ore": 462,
      "locity": 463,
      "Velocity": 464,
      "Random": 465,
      "ĠRandom": 466,
      "chore": 467,
      "NextNumber": 468,
      "Anchore": 469,
      "Anchored": 470,
      "Rare": 471,
      "ĠConfig": 472,
      "ĠrewardRemote": 473,
      "Ġelseif": 474,
      "ĠsavedValue": 475,
      "oly": 476,
      "Ġremote": 477,
      "ate": 478,
      "Cre": 479,
      "Di": 480,
      "Qu": 481,
      "Sty": 482,
      "fo": 483,
      "le": 484,
      "ĠPosition": 485,
      "rection": 486,
      "Info": 487,
      "ĠTweenService": 488,
      "ĠTweenInfo": 489,
      "EasingDi": 490,
      "EasingSty": 491,
      "Create": 492,
      "Quad": 493,
      "EasingDirection": 494,
      "EasingStyle": 495,
      "ound": 496,
      "tool": 497,
      "SetAsync": 498,
      "key": 499,
      "Out": 500,
      "25": 501,
      "Ġ9": 502,
      "Get": 503,
      "tween": 504,
      "Ġtween": 505,
      "az": 506,
      "azard": 507,
      "10": 508,
      "Ġ==": 509,
      "it": 510,
      "requestedAmount": 511,
      "Ġfunction": 512,
      "ĊĊĠĠĠ": 513,
      "Ġ[&](": 514,
      "Purchase": 515,
      "ĠDataStore": 516,
      "GetDataStore": 517,
      "ĠDataStoreService": 518,
      "Ġn": 519,
      "GetAsync": 520,
      "ĠPlayer": 521,
      "UpgradeWins": 522,
      "cal": 523,
      "Local": 524,
      "ĠPlayers": 525,
      "LocalPlayer": 526,
      "});": 527,
      "Ġ+=": 528,
      "lor": 529,
      "RollPoints": 530,
      "Color": 531,
      "Round": 532,
      "Ġ\"#": 533,
      "ave": 534,
      "Ġbutton": 535,
      "of": 536,
      "Ġload": 537,
      "ile": 538,
      "Prof": 539,
      "Load": 540,
      "Profile": 541,
      "ran": 542,
      "renc": 543,
      "sparenc": 544,
      "ransparenc": 545,
      "ransparency": 546,
      "ish": 547,
      "Finish": 548,
      "ĠTransparency": 549,
      "Ġscript": 550,
      "05": 551,
      "Ġ11": 552,
      "button": 553,
      "Vi": 554,
      "Ġclick": 555,
      "Script": 556,
      "ĠScript": 557,
      "Hazard": 558,
      "Do": 559,
      "La": 560,
      "ner": 561,
      "inner": 562,
      "unch": 563,
      "RewardPad": 564,
      "Spinner": 565,
      "Door": 566,
      "Launch": 567,
      "LaunchPad": 568,
      "})": 569,
      "SprintEnabled": 570,
      "eed": 571,
      "kSp": 572,
      "alkSp": 573,
      "Ġ18": 574,
      "RewardLava": 575,
      "DamageGems": 576,
      "PurchaseCoins": 577,
      "RoundScore": 578,
      "alkSpeed": 579,
      "WalkSpeed": 580,
      "ger": 581,
      "era": 582,
      "seed": 583,
      "Inte": 584,
      "randomseed": 585,
      "Integer": 586,
      "Ang": 587,
      "Mat": 588,
      "ial": 589,
      "erial": 590,
      "return": 591,
      "arVelocity": 592,
      "ularVelocity": 593,
      "NextInteger": 594,
      "AngularVelocity": 595,
      "Material": 596,
      "BaseReward": 597,
      "Cam": 598,
      "Jum": 599,
      "Of": 600,
      "dOf": 601,
      "ew": 602,
      "gend": 603,
      "mm": 604,
      "pPo": 605,
      "wer": 606,
      "ary": 607,
      "Fiel": 608,
      "Legend": 609,
      "Ġ{}": 610,
      "Comm": 611,
      "rewardRemote": 612,
      "SprintMultiplier": 613,
      "View": 614,
      "eraFiel": 615,
      "CameraFiel": 616,
      "JumpPo": 617,
      "dOfView": 618,
      "Legendary": 619,
      "Common": 620,
      "CameraFieldOfView": 621,
      "JumpPower": 622,
      "FireServer": 623,
      "Ġ16": 624,
      "Poly": 625,
      "FF": 626,
      "clu": 627,
      "hpp": 628,
      "poly": 629,
      "using": 630,
      "ĠPoly": 631,
      "inclu": 632,
      "include": 633,
      "im": 634,
      "Sw": 635,
      "ĠAn": 636,
      "Ġtool": 637,
      "ĠCo": 638,
      "mbat": 639,
      "arest": 640,
      "ations": 641,
      "Nearest": 642,
      "DamageNearest": 643,
      "imations": 644,
      "Swing": 645,
      "ĠAnimations": 646,
      "ĠCombat": 647,
      "Ġ12": 648,
      "Ġ15": 649,
      "Ġround": 650,
      "();": 651,
      "hit": 652,
      "ĠEasingDirection": 653,
      "ĠEasingStyle": 654,
      "Ġ24": 655,
      "([&](": 656,
      "ull": 657,
      "Ġ14": 658,
      "Ġnull": 659,
      "serv": 660,
      "server": 661,
      "Ġ30": 662,
      "55": 663,
      "Ġ19": 664,
      "He": 665,
      "th": 666,
      "alth": 667,
      "Health": 668,
      "bu": 669,
      "tt": 670,
      "tAtt": 671,
      "ribu": 672,
      "tAttribu": 673,
      "tAttribute": 674,
      "Ġ13": 675,
      "ait": 676,
      "Ġ28": 677,
      "Ġ20": 678,
      "Ġ17": 679,
      "SetAttribute": 680,
      "hazard": 681,
      "Ġ22": 682,
      "Save": 683,
      "pad": 684,
      "save": 685,
      "Ġkey": 686,
      "Ġsave": 687,
      "Ġnil": 688,
      "45": 689,
      "wait": 690,
      "Ġ26": 691,
      "Ġ27": 692,
      "16": 693,
      "Ġ33": 694,
      "([&]": 695,
      "Ġ()": 696,
      "([&]()": 697,
      "Ġ45": 698,
      "ĠroundRemote": 699,
      "15": 700,
      "Ġ23": 701,
      "Ġhit": 702,
      "round": 703,
      "roundNumber": 704,
      "Ġ32": 705,
      "50": 706,
      "Click": 707,
      "op": 708,
      "ou": 709,
      "75": 710,
      "Ġ29": 711,
      "Ġsound": 712,
      "Ġpad": 713,
      "ptr": 714,
      "ĠroundNumber": 715,
      "Ġnullptr": 716,
      "22": 717,
      "Al": 718,
      "Bu": 719,
      "00": 720,
      "Tou": 721,
      "ched": 722,
      "Ġ34": 723,
      "Touched": 724,
      "Ġ21": 725,
      "UpgradeLava": 726,
      "lClient": 727,
      "FireAl": 728,
      "lClients": 729,
      "FireAllClients": 730,
      "Ġ25": 731,
      "as": 732,
      "Ġhazard": 733,
      "ask": 734,
      "Tween": 735,
      "Ġ36": 736,
      "Ġ46": 737,
      "88": 738,
      "Ġ39": 739,
      "Ġ35": 740,
      "UpgradeCoins": 741,
      "UpgradeScore": 742,
      "UpgradePoints": 743,
      "UpgradeGems": 744,
      "Ġtask": 745,
      "Busy": 746,
      "35": 747,
      "77": 748,
      "Ġ38": 749,
      "put": 750,
      "Ġ31": 751,
      "Ġ40": 752,
      "Ġ60": 753,
      "20": 754,
      "30": 755,
      "Ġ44": 756,
      "Ġ75": 757,
      "Ġ37": 758,
      "arge": 759,
      "arget": 760,
      "me": 761,
      "Ġ43": 762,
      "166": 763,
      "ast": 764,
      "metal": 765,
      "ext": 766,
      "od": 767,
      "ood": 768,
      "wood": 769,
      "Ġst": 770,
      "plast": 771,
      "neon": 772,
      "Ġ42": 773,
      "plastic": 774,
      "Ġdo": 775,
      "AA": 776,
      "CC": 777,
      "AAFF": 778,
      "CFF": 779,
      "ht": 780,
      "ight": 781,
      "Ġ47": 782,
      "FFD": 783,
      "7755": 784,
      "hop": 785,
      "40": 786,
      "Ġ41": 787,
      "ep": 788,
      "Ġ48": 789,
      "RollScore": 790,
      "Ġstep": 791,
      "lose": 792,
      "Text": 793,
      "Ġtarget": 794,
      "InvokeServer": 795,
      "client": 796,
      "Ta": 797,
      "ection": 798,
      "for": 799,
      "AddTa": 800,
      "Collection": 801,
      "AddTag": 802,
      "CollectionService": 803,
      "Ġ59": 804,
      "So": 805,
      "urce": 806,
      "LavaProfile": 807,
      "CoinsProfile": 808,
      "ScoreProfile": 809,
      "PointsProfile": 810,
      "GemsProfile": 811,
      "WinsProfile": 812,
      "Ġ78": 813,
      "LoadLava": 814,
      "LoadCoins": 815,
      "LoadScore": 816,
      "LoadPoints": 817,
      "LoadGems": 818,
      "LoadWins": 819,
      "Source": 820,
      "St": 821,
      "Ġ50": 822,
      "Ġ49": 823,
      "Ġ120": 824,
      "Ġ66": 825,
      "Ġ69": 826,
      "Ġ76": 827,
      "Ġ56": 828,
      "Ġ90": 829,
      "19": 830,
      "Ġ57": 831,
      "Ġ180": 832,
      "Ġ51": 833,
      "Ġ240": 834,
      "Ġ54": 835,
      "Ġ150": 836,
      "close": 837,
      "enTween": 838,
      "aseValue": 839,
      "ĠbaseValue": 840,
      "Ġ52": 841,
      "Ġ68": 842,
      "Ġ195": 843,
      "openTween": 844,
      "closeTween": 845,
      "Ġ67": 846,
      "Ġ79": 847,
      "Ġ70": 848,
      "Ġ210": 849,
      "RollLava": 850,
      "RollCoins": 851,
      "RollGems": 852,
      "RollWins": 853,
      "Ġ105": 854,
      "18": 855,
      "Ġwait": 856,
      "Ġ135": 857,
      "Ġ165": 858,
      "Ġ58": 859,
      "Ġ72": 860,
      "RareLava": 861,
      "RareCoins": 862,
      "RareScore": 863,
      "RarePoints": 864,
      "RareGems": 865,
      "RareWins": 866,
      "Ġ63": 867,
      "Ġ73": 868,
      "Ġ77": 869,
      "14": 870,
      "17": 871,
      "Ke": 872,
      "Ġ225": 873,
      "Ġ300": 874,
      "Key": 875,
      "12": 876,
      "Ġ65": 877,
      "Ġ270": 878,
      "13": 879,
      "input": 880,
      "Code": 881,
      "Input": 882,
      "Ġ74": 883,
      "KeyCode": 884,
      "Ġ53": 885,
      "Ġ62": 886,
      "Ġ64": 887,
      "Start": 888,
      "Ġ255": 889,
      "ighting": 890,
      "Ġ330": 891,
      "Ġ55": 892,
      "Ġ315": 893,
      "Ġ285": 894,
      "lava": 895,
      "Ġ345": 896,
      "ui": 897,
      "Ġ61": 898,
      "nel": 899,
      "Ġ80": 900,
      "ss": 901,
      "Ġshop": 902,
      "Lighting": 903,
      "remote": 904,
      "Ġ71": 905,
      "us": 906,
      "whil": 907,
      "lock": 908,
      "while": 909,
      "Ġ81": 910,
      "Playing": 911,
      "Ġ<=": 912,
      "Finished": 913,
      "Starting": 914,
      "Ġp": 915,
      "Ġen": 916,
      "24": 917,
      "Ġstat": 918,
      "sibl": 919,
      "Visibl": 920,
      "Visible": 921,
      "panel": 922,
      "Shop": 923,
      "26": 924,
      "Ġpanel": 925,
      "SaveLava": 926,
      "SaveCoins": 927,
      "SaveScore": 928,
      "SavePoints": 929,
      "SaveGems": 930,
      "SaveWins": 931,
      "ĠWait": 932,
      "23": 933,
      "Ġenabled": 934,
      "Sto": 935,
      "Stop": 936,
      "ĠopenTween": 937,
      "ĠcloseTween": 938,
      "Ġstatus": 939,
      "cce": 940,
      "ucce": 941,
      "uccess": 942,
      "Sk": 943,
      "Workspace": 944,
      "GetAttribute": 945,
      "Sky": 946,
      "\";": 947,
      "11": 948,
      "Sh": 949,
      "sound": 950,
      "28": 951,
      "33": 952,
      "Be": 953,
      "gan": 954,
      "UserInput": 955,
      "Ġ96": 956,
      "InputBe": 957,
      "UserInputService": 958,
      "InputBegan": 959,
      "39": 960,
      "Ġ100": 961,
      "36": 962,
      "Gui": 963,
      "ĠPlayerGui": 964,
      "Ġprint": 965,
      "Sound": 966,
      "Ġinput": 967,
      "Clicksound": 968,
      "29": 969,
      "37": 970,
      "34": 971,
      "opg": 972,
      "AddLava": 973,
      "Ġ84": 974,
      "Shopg": 975,
      "Shopgui": 976,
      "Ġ87": 977,
      "32": 978,
      "Ġ86": 979,
      "..": 980,
      "38": 981,
      "target": 982,
      "Ġ88": 983,
      "Ġ99": 984,
      "Ġ168": 985,
      "Buy": 986,
      "27": 987,
      "31": 988,
      "Ġ98": 989,
      "Ġ89": 990,
      "Ġ129": 991,
      "Ġ144": 992,
      "21": 993,
      "dated": 994,
      "pdated": 995,
      "updated": 996,
      "Ġupdated": 997,
      "Ġ138": 998,
      "ĠupdatedText": 999,
      "Ġ110": 1000,
      "Ġ85": 1001,
      "Ġ102": 1002,
      "Ġ93": 1003,
      "GetLava": 1004,
      "GetCoins": 1005,
      "GetScore": 1006,
      "GetPoints": 1007,
      "GetGems": 1008,
      "GetWins": 1009,
      "Ġ186": 1010,
      "Ġ156": 1011,
      "Ġ94": 1012,
      "Ġ189": 1013,
      "Ġ160": 1014,
      "Ġ140": 1015,
      "ness": 1016,
      "OnClient": 1017,
      "UpgradePrice": 1018,
      "Ġ95": 1019,
      "Ġ132": 1020,
      "Ġ170": 1021,
      "Ġ174": 1022,
      "OnClientEvent": 1023,
      "Ġ108": 1024,
      "Ġ114": 1025,
      "Ġ153": 1026,
      "Ġ190": 1027,
      "Ġ200": 1028,
      "Ġ204": 1029,
      "Ġ171": 1030,
      "Br": 1031,
      "Cy": 1032,
      "Clock": 1033,
      "Day": 1034,
      "Mo": 1035,
      "Night": 1036,
      "Sun": 1037,
      "Tim": 1038,
      "Ġblock": 1039,
      "cle": 1040,
      "Ġ111": 1041,
      "Ġ117": 1042,
      "Ġ162": 1043,
      "Ġ159": 1044,
      "Ġ147": 1045,
      "Ġ130": 1046,
      "ightness": 1047,
      "Brightness": 1048,
      "Cycle": 1049,
      "ClockTim": 1050,
      "DayNight": 1051,
      "Moon": 1052,
      "SunEnabled": 1053,
      "ClockTime": 1054,
      "DayNightCycle": 1055,
      "41": 1056,
      "42": 1057,
      "47": 1058,
      "48": 1059,
      "RewardWins": 1060,
      "DamagePoints": 1061,
      "PurchaseGems": 1062,
      "Ġ128": 1063,
      "Ġ146": 1064,
      "Ġ192": 1065,
      "Ġ136": 1066,
      "Ġ280": 1067,
      "Ġ177": 1068,
      "Ġ178": 1069,
      "ClickCoins": 1070,
      "49": 1071,
      "79": 1072,
      "rice": 1073,
      "success": 1074,
      "Ġtext": 1075,
      "Ġ104": 1076,
      "Ġ188": 1077,
      "Ġ123": 1078,
      "Ġ126": 1079,
      "Ġ141": 1080,
      "Ġ222": 1081,
      "Ġ450": 1082,
      "Ġ230": 1083,
      "Ġ340": 1084,
      "MoonEnabled": 1085,
      "98": 1086,
      "Ġ350": 1087,
      "Ġ400": 1088,
      "Ġ127": 1089,
      "Ġ198": 1090,
      "Ġ172": 1091,
      "Ġ176": 1092,
      "Ġ231": 1093,
      "46": 1094,
      "64": 1095,
      "95": 1096,
      "block": 1097,
      "print": 1098,
      "atus": 1099,
      "Ġ106": 1100,
      "Ġ112": 1101,
      "Ġ183": 1102,
      "Ġ154": 1103,
      "Ġ145": 1104,
      "Ġ196": 1105,
      "Ġ220": 1106,
      "Ġ228": 1107,
      "Ġ290": 1108,
      "Ġ213": 1109,
      "Ġ219": 1110,
      "Ġ360": 1111,
      "Ġ440": 1112,
      "Status": 1113,
      "Ġprice": 1114,
      "43": 1115,
      "71": 1116,
      "93": 1117,
      "Pa": 1118,
      "Ġ216": 1119,
      "Ġ92": 1120,
      "Ġ185": 1121,
      "Ġ260": 1122,
      "Ġ234": 1123,
      "Ġ237": 1124,
      "Ġ320": 1125,
      "Ġ460": 1126,
      "Ġ380": 1127,
      "ShopPa": 1128,
      "ShopPanel": 1129,
      "67": 1130,
      "94": 1131,
      "96": 1132,
      "Close": 1133,
      "Op": 1134,
      "Part": 1135,
      "ĊĠ": 1136,
      "ĠClose": 1137,
      "ĠOp": 1138,
      "ened": 1139,
      "arted": 1140,
      "Ġ125": 1141,
      "Ġ310": 1142,
      "LavaData": 1143,
      "LavaSource": 1144,
      "CoinsData": 1145,
      "CoinsSource": 1146,
      "ScoreData": 1147,
      "ScoreSource": 1148,
      "PointsData": 1149,
      "PointsSource": 1150,
      "GemsData": 1151,
      "GemsSource": 1152,
      "WinsData": 1153,
      "WinsSource": 1154,
      "Ġ97": 1155,
      "Ġ116": 1156,
      "Ġ119": 1157,
      "Ġ155": 1158,
      "Ġ248": 1159,
      "Ġ197": 1160,
      "Ġ179": 1161,
      "Ġstarted": 1162,
      "ĠClosed": 1163,
      "ĠOpened": 1164,
      "66": 1165,
      "73": 1166,
      "74": 1167,
      "76": 1168,
      "87": 1169,
      "Ġ250": 1170,
      "Ġ101": 1171,
      "Ġ83": 1172,
      "RoundStart": 1173,
      "Ġ163": 1174,
      "Ġ243": 1175,
      "Ġ134": 1176,
      "Ġ137": 1177,
      "Ġ201": 1178,
      "Ġ207": 1179,
      "Ġ264": 1180,
      "Ġ256": 1181,
      "Ġ390": 1182,
      "Ġ370": 1183,
      "Ġ470": 1184,
      "44": 1185,
      "84": 1186,
      "85": 1187,
      "90": 1188,
      "92": 1189,
      "97": 1190,
      "Wait": 1191,
      "task": 1192,
      "Ġ205": 1193,
      "Ġ416": 1194,
      "Ġ430": 1195,
      "Purchased": 1196,
      "Ġ115": 1197,
      "Ġ118": 1198,
      "Ġ184": 1199,
      "Ġ187": 1200,
      "Ġ164": 1201,
      "Ġ166": 1202,
      "Ġ124": 1203,
      "Ġ152": 1204,
      "Ġ158": 1205,
      "Ġ246": 1206,
      "Ġ236": 1207,
      "Ġ348": 1208,
      "...": 1209,
      "Buying": 1210,
      "62": 1211,
      "81": 1212,
      "91": 1213,
      "99": 1214,
      "Success": 1215,
      "Ġco": 1216,
      "RewardSound": 1217,
      "Ġ316": 1218,
      "Ġ410": 1219,
      "Ġ103": 1220,
      "Ġ82": 1221,
      "Ġ161": 1222,
      "Ġ208": 1223,
      "Ġ272": 1224,
      "Ġ212": 1225,
      "Ġ384": 1226,
      "69": 1227,
      "70": 1228,
      "82": 1229,
      "No": 1230,
      "amount": 1231,
      "Ġamount": 1232,
      "ert": 1233,
      "Ġ420": 1234,
      "Ġ91": 1235,
      "Ġ182": 1236,
      "Ġ121": 1237,
      "Ġ148": 1238,
      "Ġ304": 1239,
      "Ġ308": 1240,
      "Ġ194": 1241,
      "Ġ206": 1242,
      "Ġ175": 1243,
      "Ġ232": 1244,
      "ClickSound": 1245,
      "Alert": 1246,
      "Ġ214": 1247,
      "Ġ426": 1248,
      "60": 1249,
      "68": 1250,
      "78": 1251,
      "80": 1252,
      "86": 1253,
      "Ġ375": 1254,
      "Ġ435": 1255,
      "Ġ142": 1256,
      "Ġ224": 1257,
      "Ġ332": 1258,
      "Ġ238": 1259,
      "Ġ365": 1260,
      "Ġ392": 1261,
      "Ġ408": 1262,
      "56": 1263,
      "63": 1264,
      "lighting": 1265,
      "Ġ425": 1266,
      "Ġ107": 1267,
      "Ġ109": 1268,
      "Ġ181": 1269,
      "Ġ167": 1270,
      "Ġ169": 1271,
      "Ġ122": 1272,
      "Ġ151": 1273,
      "Ġ157": 1274,
      "Ġ244": 1275,
      "Ġ143": 1276,
      "Ġ149": 1277,
      "Ġ282": 1278,
      "Ġ452": 1279,
      "Ġ324": 1280,
      "Ġ468": 1281,
      "Ġ358": 1282,
      "Ġ312": 1283,
      "Ġ372": 1284,
      "Ġ376": 1285,
      "Ġ434": 1286,
      "Ġ480": 1287,
      "61": 1288,
      "72": 1289,
      "Ġ215": 1290,
      "Ġ355": 1291,
      "Ġ113": 1292,
      "Ġ247": 1293,
      "Ġ306": 1294,
      "Ġ191": 1295,
      "Ġ199": 1296,
      "Ġ139": 1297,
      "Ġ202": 1298,
      "Ġ221": 1299,
      "Ġ223": 1300,
      "Ġ229": 1301,
      "Ġ263": 1302,
      "Ġ265": 1303,
      "Ġ274": 1304,
      "Ġ333": 1305,
      "Ġ336": 1306,
      "Ġ459": 1307,
      "Ġ239": 1308,
      "Ġ291": 1309,
      "Ġ297": 1310,
      "Ġ298": 1311,
      "Ġ344": 1312,
      "Ġ257": 1313,
      "Ġ258": 1314,
      "Ġ366": 1315,
      "Ġ368": 1316,
      "Ġ399": 1317,
      "Ġ357": 1318,
      "Ġ382": 1319,
      "Ġ314": 1320,
      "Ġ442": 1321,
      "Ġ374": 1322,
      "Ġ418": 1323,
      "57": 1324,
      "65": 1325,
      "89": 1326,
      "gh": 1327,
      "Ġne": 1328,
      "RewardRound": 1329,
      "Ġsuccess": 1330,
      "Ġ520": 1331,
      "UpgradeRound": 1332,
      "xtPrice": 1333,
      "RollRound": 1334,
      "DamageRound": 1335,
      "PurchaseRound": 1336,
      "RoundRound": 1337,
      "Ġ242": 1338,
      "Ġ249": 1339,
      "Ġ193": 1340,
      "Ġ131": 1341,
      "Ġ133": 1342,
      "Ġ288": 1343,
      "Ġ173": 1344,
      "Ġ226": 1345,
      "Ġ262": 1346,
      "Ġ268": 1347,
      "Ġ273": 1348,
      "Ġ276": 1349,
      "ough": 1350,
      "Ġ296": 1351,
      "Ġ218": 1352,
      "Ġ252": 1353,
      "Ġ253": 1354,
      "Ġ254": 1355,
      "Ġ352": 1356,
      "Ġ448": 1357,
      "Ġ417": 1358,
      "Ġ780": 1359,
      "Ġ560": 1360,
      "Ġenough": 1361,
      "...\";": 1362,
      "Ġcount": 1363,
      "Not": 1364,
      "51": 1365,
      "52": 1366,
      "59": 1367,
      "83": 1368,
      "Ġ540": 1369,
      "Ġ388": 1370,
      "Ġ455": 1371,
      "Ġ445": 1372,
      "Ġ610": 1373,
      "Ġ620": 1374,
      "Ġ640": 1375,
      "Ġ720": 1376,
      "Ġ245": 1377,
      "Ġ307": 1378,
      "Ġ281": 1379,
      "Ġ289": 1380,
      "Ġ331": 1381,
      "Ġ338": 1382,
      "Ġ451": 1383,
      "Ġ456": 1384,
      "Ġ235": 1385,
      "Ġ323": 1386,
      "Ġ328": 1387,
      "Ġ299": 1388,
      "Ġ341": 1389,
      "Ġ349": 1390,
      "Ġ367": 1391,
      "Ġ465": 1392,
      "Ġ467": 1393,
      "Ġ469": 1394,
      "Ġ391": 1395,
      "Ġ383": 1396,
      "Ġ401": 1397,
      "Ġ406": 1398,
      "Ġ409": 1399,
      "Ġ443": 1400,
      "Ġ432": 1401,
      "Ġ433": 1402,
      "Ġ424": 1403,
      "Ġ474": 1404,
      "54": 1405,
      "ĠKeyCode": 1406,
      "enabled": 1407,
      "Ġ510": 1408,
      "Ġ530": 1409,
      "Ġ305": 1410,
      "Ġ405": 1411,
      "Ġ422": 1412,
      "Ġ650": 1413,
      "Ġ710": 1414,
      "Ġ700": 1415,
      "Ġ730": 1416,
      "Set": 1417,
      "Ġ810": 1418,
      "Ġ284": 1419,
      "Ġ286": 1420,
      "Ġ261": 1421,
      "Ġ233": 1422,
      "Ġ321": 1423,
      "Ġ322": 1424,
      "Ġ326": 1425,
      "Ġ292": 1426,
      "Ġ294": 1427,
      "Ġ217": 1428,
      "Ġ251": 1429,
      "Ġ362": 1430,
      "Ġ364": 1431,
      "Ġ462": 1432,
      "Ġ464": 1433,
      "Ġ466": 1434,
      "Ġ394": 1435,
      "Ġ396": 1436,
      "Ġ398": 1437,
      "Ġ354": 1438,
      "Ġ356": 1439,
      "Ġ318": 1440,
      "Ġ444": 1441,
      "Ġ423": 1442,
      "Ġ472": 1443,
      "Ġ412": 1444,
      "Ġsteps": 1445,
      "Ġ490": 1446,
      "Ġ760": 1447,
      "Ġ790": 1448,
      "Ġstate": 1449,
      "Ġ550": 1450,
      "Ġ500": 1451,
      "Ġ377": 1452,
      "Ġ241": 1453,
      "Ġ302": 1454,
      "Ġ303": 1455,
      "Ġ287": 1456,
      "Ġ203": 1457,
      "Ġ209": 1458,
      "Ġ227": 1459,
      "Ġ266": 1460,
      "Ġ275": 1461,
      "Ġ278": 1462,
      "Ġ279": 1463,
      "161": 1464,
      "Ġ334": 1465,
      "Ġ335": 1466,
      "Ġ339": 1467,
      "Ġ453": 1468,
      "Ġ454": 1469,
      "Ġ457": 1470,
      "Ġ458": 1471,
      "152": 1472,
      "Ġ295": 1473,
      "Ġ342": 1474,
      "Ġ346": 1475,
      "Ġ211": 1476,
      "Ġ259": 1477,
      "Ġ393": 1478,
      "Ġ351": 1479,
      "Ġ381": 1480,
      "Ġ386": 1481,
      "Ġ387": 1482,
      "Ġ389": 1483,
      "Ġ402": 1484,
      "Ġ404": 1485,
      "Ġ441": 1486,
      "Ġ446": 1487,
      "Ġ447": 1488,
      "Ġ378": 1489,
      "Ġ436": 1490,
      "Ġ438": 1491,
      "Ġ428": 1492,
      "Ġ414": 1493,
      "192": 1494,
      "Ġ680": 1495,
      "Ġ670": 1496,
      "127": 1497,
      "138": 1498,
      "58": 1499,
      "Gi": 1500,
      "ab": 1501,
      "di": 1502,
      "event": 1503,
      "eCoins": 1504,
      "lab": 1505,
      "veCoins": 1506,
      "Ġd": 1507,
      "ady": 1508,
      "text": 1509,
      "Ġ325": 1510,
      "Ġ415": 1511,
      "Ġ600": 1512,
      "Ġ630": 1513,
      "Ġ800": 1514,
      "100": 1515,
      "Ġ309": 1516,
      "Ġ267": 1517,
      "169": 1518,
      "158": 1519,
      "Ġ327": 1520,
      "Ġ363": 1521,
      "Ġ369": 1522,
      "Ġ395": 1523,
      "Ġ385": 1524,
      "Ġ429": 1525,
      "Ġ471": 1526,
      "Ġ411": 1527,
      "Ġ590": 1528,
      "195": 1529,
      "197": 1530,
      "198": 1531,
      "Ġ570": 1532,
      "181": 1533,
      "186": 1534,
      "141": 1535,
      "144": 1536,
      "147": 1537,
      "172": 1538,
      "121": 1539,
      "GiveCoins": 1540,
      "dio": 1541,
      "label": 1542,
      "145": 1543,
      "114": 1544,
      "Ġlava": 1545,
      "Ġ525": 1546,
      "Ġ750": 1547,
      "Ġ740": 1548,
      "105": 1549,
      "106": 1550,
      "Ġ301": 1551,
      "Ġ283": 1552,
      "Ġ269": 1553,
      "Ġ271": 1554,
      "Ġ277": 1555,
      "164": 1556,
      "168": 1557,
      "Ġ337": 1558,
      "153": 1559,
      "154": 1560,
      "159": 1561,
      "Ġ329": 1562,
      "Ġ293": 1563,
      "Ġ343": 1564,
      "Ġ347": 1565,
      "Ġ361": 1566,
      "Ġ461": 1567,
      "Ġ463": 1568,
      "Ġ397": 1569,
      "Ġ353": 1570,
      "Ġ359": 1571,
      "Ġ311": 1572,
      "Ġ313": 1573,
      "Ġ317": 1574,
      "Ġ319": 1575,
      "Ġ403": 1576,
      "Ġ407": 1577,
      "Ġ449": 1578,
      "Ġ371": 1579,
      "Ġ373": 1580,
      "Ġ379": 1581,
      "Ġ431": 1582,
      "Ġ437": 1583,
      "Ġ439": 1584,
      "Ġ421": 1585,
      "Ġ427": 1586,
      "Ġ473": 1587,
      "Ġ413": 1588,
      "Ġ419": 1589,
      "Ġ660": 1590,
      "Ġ690": 1591,
      "190": 1592,
      "199": 1593,
      "184": 1594,
      "189": 1595,
      "Ġ580": 1596,
      "Ġ770": 1597,
      "143": 1598,
      "178": 1599,
      "179": 1600,
      "124": 1601,
      "129": 1602,
      "132": 1603,
      "136": 1604,
      "242": 1605,
      "125": 1606,
      "116": 1607,
      "188": 1608,
      "177": 1609,
      "120": 1610,
      "140": 1611,
      "119": 1612,
      "118": 1613,
      "53": 1614,
      "Fo": 1615,
      "You": 1616,
      "con": 1617,
      "cim": 1618,
      "gen": 1619,
      "ow": 1620,
      "script": 1621,
      "Ġgen": 1622,
      "adow": 1623,
      "nextPrice": 1624,
      "Ġ555": 1625,
      "Ġfor": 1626,
      "101": 1627,
      "102": 1628,
      "104": 1629,
      "107": 1630,
      "109": 1631,
      "erator": 1632,
      "160": 1633,
      "163": 1634,
      "167": 1635,
      "150": 1636,
      "151": 1637,
      "156": 1638,
      "191": 1639,
      "182": 1640,
      "183": 1641,
      "146": 1642,
      "170": 1643,
      "171": 1644,
      "174": 1645,
      "176": 1646,
      "123": 1647,
      "128": 1648,
      "134": 1649,
      "137": 1650,
      "260": 1651,
      "111": 1652,
      "Shadow": 1653,
      "...\"": 1654,
      "Ġneed": 1655,
      "ĠnextPrice": 1656,
      "Fog": 1657,
      "cond": 1658,
      "cimal": 1659,
      "Ġgenerator": 1660,
      "01": 1661,
      "02": 1662,
      "110": 1663,
      "155": 1664,
      "115": 1665,
      "175": 1666,
      "122": 1667,
      "135": 1668,
      "130": 1669,
      "117": 1670,
      "112": 1671,
      "113": 1672,
      "Ġ605": 1673,
      "254": 1674,
      "Ġ955": 1675,
      "Ġ933": 1676,
      "103": 1677,
      "108": 1678,
      "162": 1679,
      "165": 1680,
      "157": 1681,
      "223": 1682,
      "226": 1683,
      "229": 1684,
      "193": 1685,
      "194": 1686,
      "196": 1687,
      "180": 1688,
      "185": 1689,
      "187": 1690,
      "142": 1691,
      "148": 1692,
      "149": 1693,
      "173": 1694,
      "126": 1695,
      "131": 1696,
      "133": 1697,
      "139": 1698,
      "246": 1699,
      "249": 1700,
      "04": 1701,
      "09": 1702,
      "Au": 1703,
      "eger": 1704,
      "is": 1705,
      "irst": 1706,
      "pe": 1707,
      "ron": 1708,
      "wron": 1709,
      "Ġse": 1710,
      "Ġau": 1711,
      "Ġint": 1712,
      "Ġde": 1713,
      "Ġevent": 1714,
      "Ġlabel": 1715,
      "play": 1716,
      "ready": 1717,
      "entor": 1718,
      "tice": 1719,
      "state": 1720,
      "Ġ535": 1721,
      "Ġfirst": 1722,
      "Ġ475": 1723,
      "Ġ488": 1724,
      "End": 1725,
      "Ġ645": 1726,
      "Ġ635": 1727,
      "Ġ725": 1728,
      "Ġ705": 1729,
      "Ġ712": 1730,
      "PlaySound": 1731,
      "DamageEvent": 1732,
      "Ġ805": 1733,
      "Ġ875": 1734,
      "253": 1735,
      "Ġ945": 1736,
      "Ġ950": 1737,
      "Ġ975": 1738,
      "GetReward": 1739,
      "SavePlayer": 1740,
      "Clicker": 1741,
      "220": 1742,
      "222": 1743,
      "206": 1744,
      "209": 1745,
      "State": 1746,
      "Ġ504": 1747,
      "Ġ508": 1748,
      "Ġ496": 1749,
      "Ġ695": 1750,
      "Ġ576": 1751,
      "Ġ512": 1752,
      "Ġ528": 1753,
      "243": 1754,
      "244": 1755,
      "263": 1756,
      "232": 1757,
      "280": 1758,
      "Ġ865": 1759,
      "Notice": 1760,
      "Ġdice": 1761,
      "Ġdamage": 1762,
      "Audio": 1763,
      "issing": 1764,
      "wrong": 1765,
      "Ġsecond": 1766,
      "Ġaudio": 1767,
      "Ġinteger": 1768,
      "Ġdecimal": 1769,
      "entory": 1770,
      "03": 1771,
      "215": 1772,
      "235": 1773,
      "240": 1774,
      "217": 1775,
      "213": 1776,
      "Den": 1777,
      "ied": 1778,
      "oints": 1779,
      "wins": 1780,
      "Ġge": 1781,
      "Ġwins": 1782,
      "Ġscore": 1783,
      "Ġ516": 1784,
      "Ġ577": 1785,
      "Ġ1026": 1786,
      "Ġ688": 1787,
      "Ġ775": 1788,
      "Ġ788": 1789,
      "Ġ735": 1790,
      "Ġ7138": 1791,
      "Ġ837": 1792,
      "Ġ8192": 1793,
      "251": 1794,
      "252": 1795,
      "258": 1796,
      "259": 1797,
      "Ġ905": 1798,
      "Ġ977": 1799,
      "Ġ9246": 1800,
      "PurchaseSound": 1801,
      "Ġ1188": 1802,
      "Ġ1426": 1803,
      "Ġ1341": 1804,
      "Ġ2395": 1805,
      "Ġ2922": 1806,
      "221": 1807,
      "224": 1808,
      "228": 1809,
      "Ġ3449": 1810,
      "880": 1811,
      "889": 1812,
      "Ġ3976": 1813,
      "Ġ6084": 1814,
      "204": 1815,
      "207": 1816,
      "208": 1817,
      "Ġ484": 1818,
      "Ġ502": 1819,
      "Ġ506": 1820,
      "Ġ5030": 1821,
      "Ġ495": 1822,
      "Ġ498": 1823,
      "Ġ6611": 1824,
      "Ġ7665": 1825,
      "Ġ524": 1826,
      "Ġpoints": 1827,
      "261": 1828,
      "262": 1829,
      "231": 1830,
      "233": 1831,
      "236": 1832,
      "237": 1833,
      "238": 1834,
      "283": 1835,
      "399": 1836,
      "362": 1837,
      "Ġ8719": 1838,
      "Ġ1868": 1839,
      "Ġ4503": 1840,
      "Ġcoins": 1841,
      "Ġ5557": 1842,
      "Denied": 1843,
      "Ġgems": 1844,
      "Ġ9773": 1845,
      "06": 1846,
      "07": 1847,
      "225": 1848,
      "210": 1849,
      "205": 1850,
      "245": 1851,
      "216": 1852,
      "200": 1853,
      "230": 1854,
      "219": 1855,
      "218": 1856,
      "214": 1857,
      "212": 1858,
      "211": 1859,
      "7280": 1860,
      "Av": 1861,
      "Cast": 1862,
      "De": 1863,
      "Dice": 1864,
      "Fr": 1865,
      "Glo": 1866,
      "Lin": 1867,
      "Mas": 1868,
      "Missing": 1869,
      "Ph": 1870,
      "Sof": 1871,
      "Transparency": 1872,
      "Vo": 1873,
      "af": 1874,
      "activated": 1875,
      "ape": 1876,
      "be": 1877,
      "bal": 1878,
      "dSwing": 1879,
      "fore": 1880,
      "her": 1881,
      "ked": 1882,
      "missing": 1883,
      "nam": 1884,
      "pur": 1885,
      "price": 1886,
      "sav": 1887,
      "ter": 1888,
      "tness": 1889,
      "ution": 1890,
      "uched": 1891,
      "ventory": 1892,
      "ysi": 1893,
      "Ġi": 1894,
      "Ġto": 1895,
      "Ġin": 1896,
      "ĠLava": 1897,
      "ĠCoins": 1898,
      "ĠScore": 1899,
      "ĠPoints": 1900,
      "ĠGems": 1901,
      "ĠLighting": 1902,
      "Ġlighting": 1903,
      "Ġmissing": 1904,
      "ple": 1905,
      "repe": 1906,
      "alysi": 1907,
      "atar": 1908,
      "stit": 1909,
      "Ġready": 1910,
      "til": 1911,
      "iction": 1912,
      "Ready": 1913,
      "Restit": 1914,
      "until": 1915,
      "(\"#": 1916,
      "color": 1917,
      "chEnd": 1918,
      "lume": 1919,
      "ServerAudio": 1920,
      "Ġthe": 1921,
      "Ġ})": 1922,
      "Count": 1923,
      "elseif": 1924,
      "ordSwing": 1925,
      "Ġ505": 1926,
      "Ġ545": 1927,
      "Ġ515": 1928,
      "Ġ522": 1929,
      "Ġ5166": 1930,
      "Ġ5880": 1931,
      "ĠWins": 1932,
      "ĠWalkSpeed": 1933,
      "Ġ-=": 1934,
      "Usernam": 1935,
      "Ġ1035": 1936,
      "Ġ1018": 1937,
      "Ġ10198": 1938,
      "Ġ10181": 1939,
      "Ġ10147": 1940,
      "Ġ10164": 1941,
      "Ġ10249": 1942,
      "Ġ10232": 1943,
      "Ġ10283": 1944,
      "Inventory": 1945,
      "Spher": 1946,
      "Ġ625": 1947,
      "Ġ615": 1948,
      "Ġ6152": 1949,
      "Ġ6169": 1950,
      "Ġ6186": 1951,
      "Ġ6254": 1952,
      "Ġ6220": 1953,
      "Ġ715": 1954,
      "Ġ7172": 1955,
      "Ġ7121": 1956,
      "Ġ7189": 1957,
      "Ġ7223": 1958,
      "PlayerData": 1959,
      "Loop": 1960,
      "Second": 1961,
      "clicker": 1962,
      "Ġ855": 1963,
      "Ġ877": 1964,
      "Ġ814": 1965,
      "Ġ839": 1966,
      "Ġ829": 1967,
      "Ġ831": 1968,
      "Ġ8158": 1969,
      "Ġ8141": 1970,
      "Ġ8124": 1971,
      "Ġ8260": 1972,
      "Ġ8226": 1973,
      "Ġ8209": 1974,
      "Ġ8243": 1975,
      "Ġ8889": 1976,
      "Ġ8362": 1977,
      "250": 1978,
      "255": 1979,
      "256": 1980,
      "257": 1981,
      "Ġ916": 1982,
      "Ġ900": 1983,
      "Ġ936": 1984,
      "Ġ929": 1985,
      "Ġ934": 1986,
      "Ġ938": 1987,
      "Ġ979": 1988,
      "Ġ9161": 1989,
      "Ġ9127": 1990,
      "Ġ9195": 1991,
      "Ġ9144": 1992,
      "Ġ9178": 1993,
      "Ġ9229": 1994,
      "Ġ9263": 1995,
      "Ġ9280": 1996,
      "Ġ9399": 1997,
      "GetInventory": 1998,
      "Ġ1120": 1999,
      "Ġ1137": 2000,
      "Ġclicker": 2001,
      "Ġ1800": 2002,
      "Ġ1817": 2003,
      "Ġ1834": 2004,
      "Ġ1630": 2005,
      "Ġ1613": 2006,
      "Ġ1647": 2007,
      "Ġ1698": 2008,
      "Ġ1664": 2009,
      "SwordSwing": 2010,
      "ĠAnalysi": 2011,
      "Ġ1205": 2012,
      "Ġ1222": 2013,
      "Ġ1239": 2014,
      "Ġ1545": 2015,
      "Ġ1511": 2016,
      "Ġ1528": 2017,
      "Ġ1579": 2018,
      "Ġ2412": 2019,
      "Ġ2429": 2020,
      "Ġ2446": 2021,
      "Ġ2497": 2022,
      "Ġ1477": 2023,
      "Ġ1494": 2024,
      "Ġ3075": 2025,
      "Ġ3024": 2026,
      "Ġ3041": 2027,
      "Ġ3092": 2028,
      "Ġ1919": 2029,
      "Ġ1936": 2030,
      "Ġ1375": 2031,
      "Ġ1324": 2032,
      "Ġ1392": 2033,
      "Ġ2888": 2034,
      "Ġ2820": 2035,
      "Ġ2837": 2036,
      "Ġ2871": 2037,
      "Ġ2038": 2038,
      "Ġ2021": 2039,
      "Ġ1715": 2040,
      "Ġ1732": 2041,
      "Ġ2225": 2042,
      "Ġ2242": 2043,
      "Ġ2293": 2044,
      "Ġ2276": 2045,
      "Ġ2616": 2046,
      "Ġ2650": 2047,
      "Ġ2633": 2048,
      "Ġ2667": 2049,
      "Ġ2684": 2050,
      "Ġ2735": 2051,
      "Ġ2718": 2052,
      "Ġ2769": 2053,
      "Ġ2786": 2054,
      "Ġ2752": 2055,
      "Ġ3330": 2056,
      "Ġ3313": 2057,
      "Ġ3347": 2058,
      "Ġ3398": 2059,
      "Ġ3364": 2060,
      "Ġ3381": 2061,
      "Ġ4588": 2062,
      "Ġ4520": 2063,
      "Ġ4537": 2064,
      "Ġ4571": 2065,
      "Ġ2310": 2066,
      "Ġ2327": 2067,
      "Ġ3245": 2068,
      "Ġ3211": 2069,
      "Ġ3228": 2070,
      "Ġ3279": 2071,
      "Ġ3296": 2072,
      "Ġ3262": 2073,
      "Clicked": 2074,
      "Ġ2905": 2075,
      "Ġ2939": 2076,
      "Ġ2973": 2077,
      "Ġ2990": 2078,
      "Ġ2956": 2079,
      "227": 2080,
      "TouchEnd": 2081,
      "Ġ3415": 2082,
      "Ġ3432": 2083,
      "Ġ3466": 2084,
      "Ġ2140": 2085,
      "Ġ2123": 2086,
      "Ġ2174": 2087,
      "Ġ2514": 2088,
      "Ġ2531": 2089,
      "Ġ2548": 2090,
      "Ġ2599": 2091,
      "Ġ2582": 2092,
      "Ġ3619": 2093,
      "Ġ3636": 2094,
      "Ġ3687": 2095,
      "Ġ3670": 2096,
      "Ġ4605": 2097,
      "Ġ4622": 2098,
      "Ġ4639": 2099,
      "Ġ4673": 2100,
      "Ġ4690": 2101,
      "Ġ4656": 2102,
      "Ġ3925": 2103,
      "Ġ3942": 2104,
      "Ġ3993": 2105,
      "Ġ3959": 2106,
      "Ġ3517": 2107,
      "Ġ3534": 2108,
      "Ġ3585": 2109,
      "Ġ3568": 2110,
      "Ġ3840": 2111,
      "Ġ3823": 2112,
      "Ġ3874": 2113,
      "Ġ3891": 2114,
      "Ġ3857": 2115,
      "Ġ3177": 2116,
      "Ġ3126": 2117,
      "Ġ3143": 2118,
      "Ġ3194": 2119,
      "Ġ4010": 2120,
      "Ġ4027": 2121,
      "Ġ4095": 2122,
      "Ġ4044": 2123,
      "Ġ4078": 2124,
      "Ġ4061": 2125,
      "Ġ6016": 2126,
      "Ġ6033": 2127,
      "Ġ6067": 2128,
      "201": 2129,
      "202": 2130,
      "203": 2131,
      "Ġ4435": 2132,
      "Ġ4418": 2133,
      "Ġ4469": 2134,
      "Ġ4486": 2135,
      "Ġ7512": 2136,
      "Ġ7529": 2137,
      "Ġ7546": 2138,
      "Ġ7597": 2139,
      "Ġ7580": 2140,
      "Ġ7563": 2141,
      "Ġ3755": 2142,
      "Ġ3738": 2143,
      "Ġ3721": 2144,
      "Ġ3789": 2145,
      "Ġ4316": 2146,
      "Ġ4350": 2147,
      "Ġ4333": 2148,
      "Ġ4367": 2149,
      "Ġ4384": 2150,
      "Ġ4214": 2151,
      "Ġ4231": 2152,
      "Ġ4248": 2153,
      "Ġ4299": 2154,
      "Ġ4282": 2155,
      "Ġ476": 2156,
      "Ġ478": 2157,
      "Ġ4775": 2158,
      "Ġ4724": 2159,
      "Ġ4741": 2160,
      "Ġ4792": 2161,
      "Ġ4112": 2162,
      "Ġ4129": 2163,
      "Ġ4146": 2164,
      "Ġ4197": 2165,
      "Ġ4180": 2166,
      "Ġ482": 2167,
      "Ġ486": 2168,
      "Ġ489": 2169,
      "Ġ4877": 2170,
      "Ġ4826": 2171,
      "Ġ4843": 2172,
      "Ġ4894": 2173,
      "Ġ4860": 2174,
      "Ġ591": 2175,
      "Ġ592": 2176,
      "Ġ593": 2177,
      "Ġ595": 2178,
      "Ġ597": 2179,
      "Ġ5914": 2180,
      "Ġ5931": 2181,
      "Ġ5948": 2182,
      "Ġ5999": 2183,
      "Ġ5982": 2184,
      "Ġ5965": 2185,
      "Ġ784": 2186,
      "Ġ785": 2187,
      "Ġ7835": 2188,
      "Ġ7818": 2189,
      "Ġ7869": 2190,
      "Ġ7852": 2191,
      "Ġ501": 2192,
      "Ġ507": 2193,
      "Ġ5013": 2194,
      "Ġ5047": 2195,
      "Ġ5098": 2196,
      "Ġ5064": 2197,
      "Ġ5081": 2198,
      "Ġ491": 2199,
      "Ġ492": 2200,
      "Ġ494": 2201,
      "Ġ4945": 2202,
      "Ġ4911": 2203,
      "Ġ4928": 2204,
      "Ġ4979": 2205,
      "Ġ4996": 2206,
      "Ġ4962": 2207,
      "Ġ661": 2208,
      "Ġ664": 2209,
      "Ġ6645": 2210,
      "Ġ6628": 2211,
      "Ġ6679": 2212,
      "Ġ6696": 2213,
      "Ġ6662": 2214,
      "Ġ6900": 2215,
      "Ġ6917": 2216,
      "Ġ6934": 2217,
      "Ġ6985": 2218,
      "Ġ6968": 2219,
      "Ġ6951": 2220,
      "Ġ763": 2221,
      "Ġ765": 2222,
      "Ġ768": 2223,
      "Ġ7614": 2224,
      "Ġ7631": 2225,
      "Ġ7648": 2226,
      "Ġ7699": 2227,
      "Ġ7682": 2228,
      "Ġ561": 2229,
      "Ġ568": 2230,
      "Ġ5625": 2231,
      "Ġ5642": 2232,
      "Ġ5693": 2233,
      "Ġ5676": 2234,
      "Ġ5659": 2235,
      "Ġ9025": 2236,
      "Ġ9042": 2237,
      "Ġ9093": 2238,
      "Ġ9076": 2239,
      "Ġ5710": 2240,
      "Ġ5727": 2241,
      "Ġ5795": 2242,
      "Ġ5744": 2243,
      "Ġ5761": 2244,
      "Ġ513": 2245,
      "Ġ514": 2246,
      "Ġ518": 2247,
      "Ġ5115": 2248,
      "Ġ5132": 2249,
      "Ġ5149": 2250,
      "Ġ5183": 2251,
      "Ġ542": 2252,
      "Ġ543": 2253,
      "Ġ549": 2254,
      "Ġ5455": 2255,
      "Ġ5438": 2256,
      "Ġ5421": 2257,
      "Ġ5472": 2258,
      "Ġ5489": 2259,
      "Ġ526": 2260,
      "Ġ5200": 2261,
      "Ġ5217": 2262,
      "Ġ5234": 2263,
      "Ġ5285": 2264,
      "Ġ5268": 2265,
      "Ġ685": 2266,
      "Ġ6815": 2267,
      "Ġ6832": 2268,
      "Ġ6849": 2269,
      "Ġ6866": 2270,
      "Ġ1953": 2271,
      "Ġ678": 2272,
      "Ġ6730": 2273,
      "Ġ6713": 2274,
      "Ġ6747": 2275,
      "Ġ6798": 2276,
      "Ġ6764": 2277,
      "Ġ6781": 2278,
      "Ġ792": 2279,
      "Ġ795": 2280,
      "Ġ797": 2281,
      "Ġ7988": 2282,
      "Ġ7920": 2283,
      "Ġ7937": 2284,
      "Ġ7971": 2285,
      "Ġ7954": 2286,
      "Ġ704": 2287,
      "Ġ7019": 2288,
      "Ġ7036": 2289,
      "Ġ7087": 2290,
      "Ġ7070": 2291,
      "Ġ2106": 2292,
      "Ġ1052": 2293,
      "Ġ1358": 2294,
      "Ġ584": 2295,
      "Ġ585": 2296,
      "Ġ5812": 2297,
      "Ġ5829": 2298,
      "Ġ5846": 2299,
      "Ġ5897": 2300,
      "Ġ5863": 2301,
      "Ġ728": 2302,
      "Ġ729": 2303,
      "Ġ7240": 2304,
      "Ġ7274": 2305,
      "Ġ7291": 2306,
      "Ġ632": 2307,
      "Ġ6305": 2308,
      "Ġ6322": 2309,
      "Ġ6339": 2310,
      "Ġ6373": 2311,
      "Ġ6390": 2312,
      "Ġ736": 2313,
      "Ġ7325": 2314,
      "Ġ7342": 2315,
      "Ġ7393": 2316,
      "Ġ7376": 2317,
      "Ġ776": 2318,
      "Ġ7716": 2319,
      "Ġ7750": 2320,
      "Ġ7733": 2321,
      "Ġ7767": 2322,
      "Ġ7784": 2323,
      "Ġ2259": 2324,
      "Ġ3007": 2325,
      "KeySound": 2326,
      "Ġ656": 2327,
      "Ġ6577": 2328,
      "Ġ6526": 2329,
      "Ġ6543": 2330,
      "Ġ6594": 2331,
      "Ġ6560": 2332,
      "Ġ2701": 2333,
      "Ġ746": 2334,
      "Ġ7410": 2335,
      "Ġ7427": 2336,
      "Ġ7495": 2337,
      "Ġ7444": 2338,
      "Ġ7478": 2339,
      "Ġ7461": 2340,
      "Ġ537": 2341,
      "Ġ5319": 2342,
      "Ġ5336": 2343,
      "Ġ5387": 2344,
      "Ġ5370": 2345,
      "Ġ627": 2346,
      "Ġ6288": 2347,
      "Ġ6237": 2348,
      "Ġ6271": 2349,
      "Ġ644": 2350,
      "Ġ648": 2351,
      "Ġ6475": 2352,
      "Ġ6424": 2353,
      "Ġ6441": 2354,
      "Ġ6492": 2355,
      "Ġ559": 2356,
      "Ġ5540": 2357,
      "Ġ5523": 2358,
      "Ġ5574": 2359,
      "Ġ5591": 2360,
      "Ġ2854": 2361,
      "Ġ6135": 2362,
      "Ġ6118": 2363,
      "Ġ8005": 2364,
      "Ġ8022": 2365,
      "Ġ8039": 2366,
      "Ġ8073": 2367,
      "Ġ8090": 2368,
      "Ġ7155": 2369,
      "Ġ8175": 2370,
      "241": 2371,
      "247": 2372,
      "248": 2373,
      "264": 2374,
      "234": 2375,
      "239": 2376,
      "Shape": 2377,
      "3366": 2378,
      "Ġ965": 2379,
      "Ġ967": 2380,
      "Ġ9688": 2381,
      "Ġ9620": 2382,
      "Ġ9637": 2383,
      "Ġ9671": 2384,
      "Ġ9654": 2385,
      "Ġ9603": 2386,
      "Ġ1001": 2387,
      "Ġ10045": 2388,
      "Ġ10011": 2389,
      "Ġ10028": 2390,
      "Ġ10079": 2391,
      "Ġ10096": 2392,
      "Ġ10062": 2393,
      "Ġ848": 2394,
      "Ġ8430": 2395,
      "Ġ8413": 2396,
      "Ġ8447": 2397,
      "Ġ8498": 2398,
      "Ġ8464": 2399,
      "Ġ8481": 2400,
      "Ġ8736": 2401,
      "Ġ8787": 2402,
      "Ġ8702": 2403,
      "Ġ8600": 2404,
      "Ġ8617": 2405,
      "Ġ8634": 2406,
      "Ġ8685": 2407,
      "Ġ8668": 2408,
      "Ġ8651": 2409,
      "Ġ882": 2410,
      "Ġ885": 2411,
      "Ġ8855": 2412,
      "Ġ8838": 2413,
      "Ġ8821": 2414,
      "Ġ8872": 2415,
      "Ġ8804": 2416,
      "Ġ9977": 2417,
      "Ġ9926": 2418,
      "Ġ9943": 2419,
      "Ġ9994": 2420,
      "Ġ9960": 2421,
      "Ġ9909": 2422,
      "Ġ1681": 2423,
      "Ġ984": 2424,
      "Ġ985": 2425,
      "Ġ9875": 2426,
      "Ġ9824": 2427,
      "Ġ9841": 2428,
      "Ġ9892": 2429,
      "Ġ9858": 2430,
      "Ġ9807": 2431,
      "Ġ895": 2432,
      "Ġ899": 2433,
      "Ġ8940": 2434,
      "Ġ8923": 2435,
      "Ġ8974": 2436,
      "Ġ8991": 2437,
      "Ġ8957": 2438,
      "Ġ8906": 2439,
      "Ġ1290": 2440,
      "Ġ1443": 2441,
      "Ġ1103": 2442,
      "Ġ8515": 2443,
      "Ġ8532": 2444,
      "Ġ8549": 2445,
      "Ġ8566": 2446,
      "Ġ8583": 2447,
      "Ġ10215": 2448,
      "Ġ9314": 2449,
      "Ġ1562": 2450,
      "Ġ9416": 2451,
      "Ġ9433": 2452,
      "Ġ9467": 2453,
      "Ġ9484": 2454,
      "Ġ1409": 2455,
      "Ġ9535": 2456,
      "Ġ9518": 2457,
      "Ġ9569": 2458,
      "Ġ9586": 2459,
      "Ġ1749": 2460,
      "Ġ1086": 2461,
      "Ġ1902": 2462,
      "Ġ2004": 2463,
      "Ġ1171": 2464,
      "Ġ1596": 2465,
      "Ġ1307": 2466,
      "MoonPh": 2467,
      "Ġ1460": 2468,
      "Ġ2803": 2469,
      "Ġ1783": 2470,
      "Ġ1885": 2471,
      "Ġ3500": 2472,
      "Ġ1273": 2473,
      "Ġ1987": 2474,
      "Ġ1766": 2475,
      "Ġ1069": 2476,
      "Ġ2208": 2477,
      "Ġ2191": 2478,
      "Ġ3602": 2479,
      "Ġ4401": 2480,
      "Ġ9212": 2481,
      "Ġ1851": 2482,
      "Ġ2344": 2483,
      "Ġ2378": 2484,
      "Ġ3806": 2485,
      "Ġ1256": 2486,
      "Ġ3109": 2487,
      "Ġ9705": 2488,
      "Ġ9722": 2489,
      "Ġ9739": 2490,
      "Ġ2480": 2491,
      "Ġ1970": 2492,
      "Ġ10130": 2493,
      "Ġ10113": 2494,
      "Ġ8345": 2495,
      "Ġ8311": 2496,
      "Ġ8328": 2497,
      "Ġ2072": 2498,
      "Ġ2565": 2499,
      "Ġ3908": 2500,
      "Ġ3704": 2501,
      "Ġ4707": 2502,
      "Ġ2055": 2503,
      "Ġ4163": 2504,
      "Ġ1154": 2505,
      "Ġ2463": 2506,
      "Ġ2361": 2507,
      "Ġ3483": 2508,
      "Ġcolor": 2509,
      "Ġ3160": 2510,
      "Ġ8277": 2511,
      "Ġ2089": 2512,
      "Ġ9110": 2513,
      "Ġ4265": 2514,
      "Ġ3653": 2515,
      "Ġ4809": 2516,
      "Ġ2157": 2517,
      "Ġ3551": 2518,
      "Ġ7801": 2519,
      "Ġ5608": 2520,
      "Ġ5404": 2521,
      "Ġ4554": 2522,
      "Ġ4452": 2523,
      "Ġ6101": 2524,
      "Ġ6203": 2525,
      "Ġ6407": 2526,
      "Ġ7206": 2527,
      "Ġ5302": 2528,
      "Ġ3058": 2529,
      "Ġ6509": 2530,
      "Ġ7104": 2531,
      "Ġ7002": 2532,
      "Ġ7308": 2533,
      "Ġ8107": 2534,
      "Ġ7903": 2535,
      "Ġ5506": 2536,
      "Ġ3772": 2537,
      "Ġ5251": 2538,
      "Shadows": 2539,
      "ShadowSof": 2540,
      "FogColor": 2541,
      "FogStart": 2542,
      "FogEnd": 2543,
      "Ġ6050": 2544,
      "Ġ9552": 2545,
      "Ġ9331": 2546,
      "Ġ5353": 2547,
      "Ġ4758": 2548,
      "Ġ6458": 2549,
      "Ġ6356": 2550,
      "Ġ7257": 2551,
      "Ġ7053": 2552,
      "Ġ8056": 2553,
      "Ġ8753": 2554,
      "Ġ9450": 2555,
      "Ġ9501": 2556,
      "Ġ9756": 2557,
      "Ġ5778": 2558,
      "Ġ10266": 2559,
      "Ġ6883": 2560,
      "Ġ7886": 2561,
      "Ġ7359": 2562,
      "Ġ8379": 2563,
      "Ġ9059": 2564,
      "Avatar": 2565,
      "CastShadow": 2566,
      "Decimal": 2567,
      "Friction": 2568,
      "Global": 2569,
      "Linked": 2570,
      "Mass": 2571,
      "Volume": 2572,
      "after": 2573,
      "before": 2574,
      "purple": 2575,
      "saved": 2576,
      "Ġtouched": 2577,
      "Ġinventory": 2578,
      "repeat": 2579,
      "Restitution": 2580,
      "Username": 2581,
      "Sphere": 2582,
      "Looped": 2583,
      "Ġ8770": 2584,
      "Ġ8396": 2585,
      "Ġ8294": 2586,
      "Ġ9008": 2587,
      "Ġ9365": 2588,
      "Ġ9297": 2589,
      "Ġ9348": 2590,
      "Ġ9382": 2591,
      "Ġ9790": 2592,
      "ĠAnalysis": 2593,
      "TouchEnded": 2594,
      "MoonPhase": 2595,
      "ShadowSoftness": 2596,
      "GlobalShadows": 2597,
      "LinkedSwordSwing": 2598
    },
    "merges": [
      [
        "Ġ",
        "Ġ"
      ],
      [
        "e",
        "r"
      ],
      [
        "ĠĠ",
        "ĠĠ"
      ],
      [
        "ĠĠ",
        "Ġ"
      ],
      [
        "Ġ",
        "="
      ],
      [
        "p",
        "l"
      ],
      [
        "r",
        "e"
      ],
      [
        "a",
        "y"
      ],
      [
        "ay",
        "er"
      ],
      [
        "pl",
        "ayer"
      ],
      [
        "a",
        "r"
      ],
      [
        "t",
        "o"
      ],
      [
        "a",
        "l"
      ],
      [
        "e",
        "n"
      ],
      [
        "Ċ",
        "ĠĠĠ"
      ],
      [
        "Ċ",
        "ĠĠĠĠ"
      ],
      [
        "i",
        "n"
      ],
      [
        "a",
        "t"
      ],
      [
        "o",
        "n"
      ],
      [
        "s",
        "t"
      ],
      [
        "ĊĠĠĠĠ",
        "ĠĠĠ"
      ],
      [
        "Ġ",
        "re"
      ],
      [
        "a",
        "d"
      ],
      [
        "t",
        "i"
      ],
      [
        "l",
        "o"
      ],
      [
        "s",
        "e"
      ],
      [
        "e",
        "d"
      ],
      [
        "i",
        "c"
      ],
      [
        "lo",
        "c"
      ],
      [
        "R",
        "e"
      ],
      [
        "loc",
        "al"
      ],
      [
        "u",
        "n"
      ],
      [
        ")",
        ";"
      ],
      [
        "u",
        "l"
      ],
      [
        "a",
        "u"
      ],
      [
        "to",
        "r"
      ],
      [
        "(",
        "\""
      ],
      [
        "ar",
        "d"
      ],
      [
        "ar",
        "t"
      ],
      [
        "p",
        "art"
      ],
      [
        "Ġ",
        "\""
      ],
      [
        "F",
        "i"
      ],
      [
        "<",
        "|"
      ],
      [
        "|",
        ">"
      ],
      [
        "u",
        "e"
      ],
      [
        "w",
        "ard"
      ],
      [
        "F",
        "in"
      ],
      [
        "n",
        "e"
      ],
      [
        "ti",
        "on"
      ],
      [
        "Fin",
        "d"
      ],
      [
        "en",
        "d"
      ],
      [
        "Ġ",
        "1"
      ],
      [
        "Ġ",
        "t"
      ],
      [
        "c",
        "o"
      ],
      [
        "i",
        "f"
      ],
      [
        "c",
        "h"
      ],
      [
        "er",
        "v"
      ],
      [
        "a",
        "se"
      ],
      [
        "L",
        "e"
      ],
      [
        "\"",
        ","
      ],
      [
        "S",
        "erv"
      ],
      [
        "u",
        "r"
      ],
      [
        "Ġ",
        "{"
      ],
      [
        "A",
        "d"
      ],
      [
        "Ad",
        "d"
      ],
      [
        "st",
        "at"
      ],
      [
        "er",
        "stat"
      ],
      [
        "ad",
        "erstat"
      ],
      [
        "Le",
        "aderstat"
      ],
      [
        "Leaderstat",
        "s"
      ],
      [
        "Ġ",
        "Leaderstats"
      ],
      [
        "Ġ",
        "player"
      ],
      [
        "en",
        "t"
      ],
      [
        "g",
        "e"
      ],
      [
        "Ġ",
        "if"
      ],
      [
        "a",
        "ge"
      ],
      [
        "c",
        "tion"
      ],
      [
        "m",
        "b"
      ],
      [
        "at",
        "ed"
      ],
      [
        "C",
        "on"
      ],
      [
        "ic",
        "e"
      ],
      [
        "Ġ",
        "0"
      ],
      [
        "l",
        "u"
      ],
      [
        "i",
        "l"
      ],
      [
        "o",
        "l"
      ],
      [
        "Ġ",
        ">"
      ],
      [
        "\"",
        ")"
      ],
      [
        "un",
        "ction"
      ],
      [
        "lu",
        "au"
      ],
      [
        "S",
        "tor"
      ],
      [
        "pl",
        "ic"
      ],
      [
        "Re",
        "plic"
      ],
      [
        "ated",
        "Stor"
      ],
      [
        "Replic",
        "atedStor"
      ],
      [
        "ReplicatedStor",
        "age"
      ],
      [
        "Ġ",
        "ReplicatedStorage"
      ],
      [
        "m",
        "o"
      ],
      [
        "Serv",
        "er"
      ],
      [
        "s",
        "ul"
      ],
      [
        "Ġre",
        "sul"
      ],
      [
        "Ġresul",
        "t"
      ],
      [
        "h",
        "il"
      ],
      [
        "r",
        "st"
      ],
      [
        "Fi",
        "rst"
      ],
      [
        "C",
        "hil"
      ],
      [
        "Find",
        "First"
      ],
      [
        "Chil",
        "d"
      ],
      [
        "FindFirst",
        "Child"
      ],
      [
        "P",
        "r"
      ],
      [
        "O",
        "n"
      ],
      [
        "a",
        "n"
      ],
      [
        "On",
        "Server"
      ],
      [
        "co",
        "mb"
      ],
      [
        "comb",
        "o"
      ],
      [
        "Ġ>",
        "="
      ],
      [
        "ĠĠĠĠ",
        "ĠĠĠ"
      ],
      [
        "ĊĠĠĠĠ",
        "ĠĠĠĠĠĠĠ"
      ],
      [
        "Pr",
        "ice"
      ],
      [
        "in",
        "s"
      ],
      [
        "V",
        "e"
      ],
      [
        "c",
        "e"
      ],
      [
        "P",
        "o"
      ],
      [
        "ol",
        "l"
      ],
      [
        "M",
        "ul"
      ],
      [
        "i",
        "er"
      ],
      [
        "pl",
        "ier"
      ],
      [
        "ti",
        "plier"
      ],
      [
        "Mul",
        "tiplier"
      ],
      [
        "ne",
        "w"
      ],
      [
        "t",
        "al"
      ],
      [
        "au",
        "to"
      ],
      [
        "to",
        "tal"
      ],
      [
        "total",
        "Price"
      ],
      [
        "Ġt",
        "h"
      ],
      [
        "Ġth",
        "en"
      ],
      [
        "a",
        "v"
      ],
      [
        "Ġ",
        "("
      ],
      [
        "Re",
        "ward"
      ],
      [
        "ch",
        "ase"
      ],
      [
        "ur",
        "chase"
      ],
      [
        "Ġ",
        "*"
      ],
      [
        "f",
        "unction"
      ],
      [
        "Ġ",
        "}"
      ],
      [
        "c",
        "t"
      ],
      [
        "ne",
        "ct"
      ],
      [
        "Con",
        "nect"
      ],
      [
        "Ġ",
        "+"
      ],
      [
        "c",
        "tor"
      ],
      [
        "Ġ",
        "Ve"
      ],
      [
        "ĠVe",
        "ctor"
      ],
      [
        "p",
        "g"
      ],
      [
        "Ġ",
        "2"
      ],
      [
        "r",
        "ad"
      ],
      [
        "pg",
        "rad"
      ],
      [
        "pgrad",
        "e"
      ],
      [
        "Ġ",
        "s"
      ],
      [
        "C",
        "o"
      ],
      [
        "Ġ",
        "local"
      ],
      [
        "e",
        "l"
      ],
      [
        "\"",
        ");"
      ],
      [
        "G",
        "e"
      ],
      [
        "p",
        "urchase"
      ],
      [
        "v",
        "ent"
      ],
      [
        "E",
        "vent"
      ],
      [
        "Ġ",
        "end"
      ],
      [
        "Ġ",
        "totalPrice"
      ],
      [
        "un",
        "t"
      ],
      [
        "mo",
        "unt"
      ],
      [
        "OnServer",
        "Event"
      ],
      [
        "A",
        "mount"
      ],
      [
        "q",
        "ue"
      ],
      [
        "Ġ",
        "combo"
      ],
      [
        "st",
        "ed"
      ],
      [
        "que",
        "sted"
      ],
      [
        "quested",
        "Amount"
      ],
      [
        "Ġre",
        "ward"
      ],
      [
        "Ġ",
        "r"
      ],
      [
        "Fi",
        "re"
      ],
      [
        "Ġ",
        "b"
      ],
      [
        "C",
        "l"
      ],
      [
        "el",
        "se"
      ],
      [
        "Ġ",
        "else"
      ],
      [
        "in",
        "t"
      ],
      [
        "i",
        "ent"
      ],
      [
        "p",
        "a"
      ],
      [
        "o",
        "r"
      ],
      [
        "ase",
        "Reward"
      ],
      [
        "Cl",
        "ient"
      ],
      [
        "s",
        "pa"
      ],
      [
        "I",
        "n"
      ],
      [
        "al",
        "ue"
      ],
      [
        "e",
        "en"
      ],
      [
        "w",
        "een"
      ],
      [
        "Ġre",
        "questedAmount"
      ],
      [
        "Fire",
        "Client"
      ],
      [
        "v",
        "ar"
      ],
      [
        "to",
        "re"
      ],
      [
        "t",
        "ur"
      ],
      [
        "tur",
        "n"
      ],
      [
        "t",
        "e"
      ],
      [
        "Ġ",
        "part"
      ],
      [
        "Ġ",
        "5"
      ],
      [
        "Ġb",
        "aseReward"
      ],
      [
        "Ġ",
        "purchase"
      ],
      [
        "Ġ",
        "W"
      ],
      [
        "k",
        "spa"
      ],
      [
        "or",
        "kspa"
      ],
      [
        "orkspa",
        "ce"
      ],
      [
        "ĠW",
        "orkspace"
      ],
      [
        "Ġ",
        "3"
      ],
      [
        "r",
        "ue"
      ],
      [
        "Ġt",
        "rue"
      ],
      [
        "Ġre",
        "turn"
      ],
      [
        "k",
        "e"
      ],
      [
        "av",
        "a"
      ],
      [
        "u",
        "pgrade"
      ],
      [
        "i",
        "g"
      ],
      [
        "L",
        "ava"
      ],
      [
        "Co",
        "ins"
      ],
      [
        "in",
        "g"
      ],
      [
        "m",
        "s"
      ],
      [
        "co",
        "re"
      ],
      [
        "int",
        "s"
      ],
      [
        "S",
        "core"
      ],
      [
        "Po",
        "ints"
      ],
      [
        "Ge",
        "ms"
      ],
      [
        "W",
        "ins"
      ],
      [
        "Ġ",
        "f"
      ],
      [
        "al",
        "se"
      ],
      [
        "Ġf",
        "alse"
      ],
      [
        "n",
        "g"
      ],
      [
        "f",
        "ig"
      ],
      [
        "Con",
        "fig"
      ],
      [
        "Ġ",
        "-"
      ],
      [
        "P",
        "l"
      ],
      [
        "U",
        "s"
      ],
      [
        "Us",
        "er"
      ],
      [
        "I",
        "d"
      ],
      [
        "User",
        "Id"
      ],
      [
        "mo",
        "te"
      ],
      [
        "a",
        "re"
      ],
      [
        "v",
        "alue"
      ],
      [
        "Ġ",
        "4"
      ],
      [
        "s",
        "h"
      ],
      [
        "p",
        "p"
      ],
      [
        ":",
        ":"
      ],
      [
        "Ġ",
        "ch"
      ],
      [
        "an",
        "ce"
      ],
      [
        "Ġr",
        "ng"
      ],
      [
        "Ġch",
        "ance"
      ],
      [
        "s",
        "i"
      ],
      [
        "Ġ",
        "T"
      ],
      [
        "Po",
        "si"
      ],
      [
        "Posi",
        "tion"
      ],
      [
        "s",
        "ing"
      ],
      [
        "Ġ1",
        "0"
      ],
      [
        "R",
        "o"
      ],
      [
        "Ġs",
        "tore"
      ],
      [
        "Ġ",
        "value"
      ],
      [
        "E",
        "n"
      ],
      [
        "F",
        "unction"
      ],
      [
        "In",
        "v"
      ],
      [
        "o",
        "ke"
      ],
      [
        "Inv",
        "oke"
      ],
      [
        "u",
        "t"
      ],
      [
        "n",
        "c"
      ],
      [
        "d",
        "o"
      ],
      [
        "OnServer",
        "Invoke"
      ],
      [
        "i",
        "on"
      ],
      [
        "at",
        "ion"
      ],
      [
        "c",
        "sh"
      ],
      [
        "ar",
        "p"
      ],
      [
        "csh",
        "arp"
      ],
      [
        "S",
        "p"
      ],
      [
        "}",
        ";"
      ],
      [
        "c",
        "pp"
      ],
      [
        "d",
        "e"
      ],
      [
        "Ġ",
        "upgrade"
      ],
      [
        "an",
        "do"
      ],
      [
        "ando",
        "m"
      ],
      [
        "Ġ",
        "6"
      ],
      [
        "Ġ",
        "auto"
      ],
      [
        "t",
        "A"
      ],
      [
        "N",
        "e"
      ],
      [
        "t",
        "y"
      ],
      [
        "E",
        "a"
      ],
      [
        "ĠT",
        "ween"
      ],
      [
        "Ea",
        "sing"
      ],
      [
        "Serv",
        "ice"
      ],
      [
        "s",
        "y"
      ],
      [
        "Re",
        "mote"
      ],
      [
        "U",
        "pgrade"
      ],
      [
        "t",
        "ation"
      ],
      [
        "Ġs",
        "av"
      ],
      [
        "Ro",
        "tation"
      ],
      [
        "a",
        "m"
      ],
      [
        "x",
        "t"
      ],
      [
        "(",
        "-"
      ],
      [
        "Ġ",
        "new"
      ],
      [
        "C",
        "oll"
      ],
      [
        "tA",
        "sy"
      ],
      [
        "tAsy",
        "nc"
      ],
      [
        "u",
        "m"
      ],
      [
        "Ġ",
        "7"
      ],
      [
        "Pl",
        "ay"
      ],
      [
        "Ġ",
        "<"
      ],
      [
        "un",
        "d"
      ],
      [
        ")",
        ","
      ],
      [
        "re",
        "ward"
      ],
      [
        "r",
        "oll"
      ],
      [
        "Ġr",
        "oll"
      ],
      [
        "D",
        "at"
      ],
      [
        "Dat",
        "a"
      ],
      [
        "Ne",
        "xt"
      ],
      [
        "C",
        "an"
      ],
      [
        "i",
        "de"
      ],
      [
        "Coll",
        "ide"
      ],
      [
        "Can",
        "Collide"
      ],
      [
        "r",
        "i"
      ],
      [
        "A",
        "n"
      ],
      [
        "(",
        ")"
      ],
      [
        "N",
        "u"
      ],
      [
        "mb",
        "er"
      ],
      [
        "Nu",
        "mber"
      ],
      [
        "S",
        "tore"
      ],
      [
        "Data",
        "Store"
      ],
      [
        "Ġsav",
        "ed"
      ],
      [
        "&",
        "]"
      ],
      [
        "[",
        "&]"
      ],
      [
        "Ġ=",
        ">"
      ],
      [
        "Pl",
        "ayer"
      ],
      [
        "p",
        "t"
      ],
      [
        "P",
        "are"
      ],
      [
        "n",
        "t"
      ],
      [
        "Pare",
        "nt"
      ],
      [
        "b",
        "l"
      ],
      [
        "L",
        "o"
      ],
      [
        "ic",
        "k"
      ],
      [
        "S",
        "e"
      ],
      [
        "Ġreward",
        "Function"
      ],
      [
        "a",
        "bl"
      ],
      [
        "abl",
        "ed"
      ],
      [
        "R",
        "oll"
      ],
      [
        "lo",
        "ad"
      ],
      [
        "c",
        "l"
      ],
      [
        "En",
        "abled"
      ],
      [
        "to",
        "n"
      ],
      [
        "ut",
        "ton"
      ],
      [
        "am",
        "age"
      ],
      [
        "D",
        "amage"
      ],
      [
        "c",
        "ri"
      ],
      [
        "cri",
        "pt"
      ],
      [
        "[&]",
        "("
      ],
      [
        "V",
        "alue"
      ],
      [
        "Ġ",
        "En"
      ],
      [
        "ĠEn",
        "um"
      ],
      [
        "Ġ",
        "var"
      ],
      [
        "r",
        "int"
      ],
      [
        "P",
        "ad"
      ],
      [
        "cl",
        "ick"
      ],
      [
        "Ġ",
        "8"
      ],
      [
        "m",
        "at"
      ],
      [
        "r",
        "andom"
      ],
      [
        "mat",
        "h"
      ],
      [
        "Ġ",
        "math"
      ],
      [
        "reward",
        "Function"
      ],
      [
        "Sp",
        "rint"
      ],
      [
        "c",
        "ti"
      ],
      [
        "v",
        "ated"
      ],
      [
        "cti",
        "vated"
      ],
      [
        "A",
        "ctivated"
      ],
      [
        "i",
        "ty"
      ],
      [
        "o",
        "re"
      ],
      [
        "loc",
        "ity"
      ],
      [
        "Ve",
        "locity"
      ],
      [
        "R",
        "andom"
      ],
      [
        "Ġ",
        "Random"
      ],
      [
        "ch",
        "ore"
      ],
      [
        "Next",
        "Number"
      ],
      [
        "An",
        "chore"
      ],
      [
        "Anchore",
        "d"
      ],
      [
        "R",
        "are"
      ],
      [
        "Ġ",
        "Config"
      ],
      [
        "Ġreward",
        "Remote"
      ],
      [
        "Ġelse",
        "if"
      ],
      [
        "Ġsaved",
        "Value"
      ],
      [
        "ol",
        "y"
      ],
      [
        "Ġre",
        "mote"
      ],
      [
        "at",
        "e"
      ],
      [
        "C",
        "re"
      ],
      [
        "D",
        "i"
      ],
      [
        "Q",
        "u"
      ],
      [
        "S",
        "ty"
      ],
      [
        "f",
        "o"
      ],
      [
        "l",
        "e"
      ],
      [
        "Ġ",
        "Position"
      ],
      [
        "re",
        "ction"
      ],
      [
        "In",
        "fo"
      ],
      [
        "ĠTween",
        "Service"
      ],
      [
        "ĠTween",
        "Info"
      ],
      [
        "Easing",
        "Di"
      ],
      [
        "Easing",
        "Sty"
      ],
      [
        "Cre",
        "ate"
      ],
      [
        "Qu",
        "ad"
      ],
      [
        "EasingDi",
        "rection"
      ],
      [
        "EasingSty",
        "le"
      ],
      [
        "o",
        "und"
      ],
      [
        "to",
        "ol"
      ],
      [
        "Se",
        "tAsync"
      ],
      [
        "ke",
        "y"
      ],
      [
        "O",
        "ut"
      ],
      [
        "2",
        "5"
      ],
      [
        "Ġ",
        "9"
      ],
      [
        "Ge",
        "t"
      ],
      [
        "t",
        "ween"
      ],
      [
        "Ġt",
        "ween"
      ],
      [
        "a",
        "z"
      ],
      [
        "az",
        "ard"
      ],
      [
        "1",
        "0"
      ],
      [
        "Ġ=",
        "="
      ],
      [
        "i",
        "t"
      ],
      [
        "re",
        "questedAmount"
      ],
      [
        "Ġ",
        "function"
      ],
      [
        "Ċ",
        "ĊĠĠĠ"
      ],
      [
        "Ġ",
        "[&]("
      ],
      [
        "P",
        "urchase"
      ],
      [
        "Ġ",
        "DataStore"
      ],
      [
        "Get",
        "DataStore"
      ],
      [
        "ĠDataStore",
        "Service"
      ],
      [
        "Ġ",
        "n"
      ],
      [
        "Ge",
        "tAsync"
      ],
      [
        "Ġ",
        "Player"
      ],
      [
        "Upgrade",
        "Wins"
      ],
      [
        "c",
        "al"
      ],
      [
        "Lo",
        "cal"
      ],
      [
        "ĠPlayer",
        "s"
      ],
      [
        "Local",
        "Player"
      ],
      [
        "}",
        ");"
      ],
      [
        "Ġ+",
        "="
      ],
      [
        "lo",
        "r"
      ],
      [
        "Roll",
        "Points"
      ],
      [
        "Co",
        "lor"
      ],
      [
        "Ro",
        "und"
      ],
      [
        "Ġ\"",
        "#"
      ],
      [
        "av",
        "e"
      ],
      [
        "Ġb",
        "utton"
      ],
      [
        "o",
        "f"
      ],
      [
        "Ġ",
        "load"
      ],
      [
        "il",
        "e"
      ],
      [
        "Pr",
        "of"
      ],
      [
        "Lo",
        "ad"
      ],
      [
        "Prof",
        "ile"
      ],
      [
        "r",
        "an"
      ],
      [
        "re",
        "nc"
      ],
      [
        "spa",
        "renc"
      ],
      [
        "ran",
        "sparenc"
      ],
      [
        "ransparenc",
        "y"
      ],
      [
        "i",
        "sh"
      ],
      [
        "Fin",
        "ish"
      ],
      [
        "ĠT",
        "ransparency"
      ],
      [
        "Ġs",
        "cript"
      ],
      [
        "0",
        "5"
      ],
      [
        "Ġ1",
        "1"
      ],
      [
        "b",
        "utton"
      ],
      [
        "V",
        "i"
      ],
      [
        "Ġ",
        "click"
      ],
      [
        "S",
        "cript"
      ],
      [
        "Ġ",
        "Script"
      ],
      [
        "H",
        "azard"
      ],
      [
        "D",
        "o"
      ],
      [
        "L",
        "a"
      ],
      [
        "n",
        "er"
      ],
      [
        "in",
        "ner"
      ],
      [
        "un",
        "ch"
      ],
      [
        "Reward",
        "Pad"
      ],
      [
        "Sp",
        "inner"
      ],
      [
        "Do",
        "or"
      ],
      [
        "La",
        "unch"
      ],
      [
        "Launch",
        "Pad"
      ],
      [
        "}",
        ")"
      ],
      [
        "Sprint",
        "Enabled"
      ],
      [
        "e",
        "ed"
      ],
      [
        "k",
        "Sp"
      ],
      [
        "al",
        "kSp"
      ],
      [
        "Ġ1",
        "8"
      ],
      [
        "Reward",
        "Lava"
      ],
      [
        "Damage",
        "Gems"
      ],
      [
        "Purchase",
        "Coins"
      ],
      [
        "Round",
        "Score"
      ],
      [
        "alkSp",
        "eed"
      ],
      [
        "W",
        "alkSpeed"
      ],
      [
        "g",
        "er"
      ],
      [
        "er",
        "a"
      ],
      [
        "se",
        "ed"
      ],
      [
        "In",
        "te"
      ],
      [
        "random",
        "seed"
      ],
      [
        "Inte",
        "ger"
      ],
      [
        "A",
        "ng"
      ],
      [
        "M",
        "at"
      ],
      [
        "i",
        "al"
      ],
      [
        "er",
        "ial"
      ],
      [
        "re",
        "turn"
      ],
      [
        "ar",
        "Velocity"
      ],
      [
        "ul",
        "arVelocity"
      ],
      [
        "Next",
        "Integer"
      ],
      [
        "Ang",
        "ularVelocity"
      ],
      [
        "Mat",
        "erial"
      ],
      [
        "B",
        "aseReward"
      ],
      [
        "C",
        "am"
      ],
      [
        "J",
        "um"
      ],
      [
        "O",
        "f"
      ],
      [
        "d",
        "Of"
      ],
      [
        "e",
        "w"
      ],
      [
        "g",
        "end"
      ],
      [
        "m",
        "m"
      ],
      [
        "p",
        "Po"
      ],
      [
        "w",
        "er"
      ],
      [
        "ar",
        "y"
      ],
      [
        "Fi",
        "el"
      ],
      [
        "Le",
        "gend"
      ],
      [
        "Ġ{",
        "}"
      ],
      [
        "Co",
        "mm"
      ],
      [
        "reward",
        "Remote"
      ],
      [
        "Sprint",
        "Multiplier"
      ],
      [
        "Vi",
        "ew"
      ],
      [
        "era",
        "Fiel"
      ],
      [
        "Cam",
        "eraFiel"
      ],
      [
        "Jum",
        "pPo"
      ],
      [
        "dOf",
        "View"
      ],
      [
        "Legend",
        "ary"
      ],
      [
        "Comm",
        "on"
      ],
      [
        "CameraFiel",
        "dOfView"
      ],
      [
        "JumpPo",
        "wer"
      ],
      [
        "Fire",
        "Server"
      ],
      [
        "Ġ1",
        "6"
      ],
      [
        "P",
        "oly"
      ],
      [
        "F",
        "F"
      ],
      [
        "c",
        "lu"
      ],
      [
        "h",
        "pp"
      ],
      [
        "p",
        "oly"
      ],
      [
        "u",
        "sing"
      ],
      [
        "Ġ",
        "Poly"
      ],
      [
        "in",
        "clu"
      ],
      [
        "inclu",
        "de"
      ],
      [
        "i",
        "m"
      ],
      [
        "S",
        "w"
      ],
      [
        "Ġ",
        "An"
      ],
      [
        "Ġ",
        "tool"
      ],
      [
        "Ġ",
        "Co"
      ],
      [
        "mb",
        "at"
      ],
      [
        "are",
        "st"
      ],
      [
        "ation",
        "s"
      ],
      [
        "Ne",
        "arest"
      ],
      [
        "Damage",
        "Nearest"
      ],
      [
        "im",
        "ations"
      ],
      [
        "Sw",
        "ing"
      ],
      [
        "ĠAn",
        "imations"
      ],
      [
        "ĠCo",
        "mbat"
      ],
      [
        "Ġ1",
        "2"
      ],
      [
        "Ġ1",
        "5"
      ],
      [
        "Ġr",
        "ound"
      ],
      [
        "(",
        ");"
      ],
      [
        "h",
        "it"
      ],
      [
        "Ġ",
        "EasingDirection"
      ],
      [
        "Ġ",
        "EasingStyle"
      ],
      [
        "Ġ2",
        "4"
      ],
      [
        "(",
        "[&]("
      ],
      [
        "ul",
        "l"
      ],
      [
        "Ġ1",
        "4"
      ],
      [
        "Ġn",
        "ull"
      ],
      [
        "s",
        "erv"
      ],
      [
        "serv",
        "er"
      ],
      [
        "Ġ3",
        "0"
      ],
      [
        "5",
        "5"
      ],
      [
        "Ġ1",
        "9"
      ],
      [
        "H",
        "e"
      ],
      [
        "t",
        "h"
      ],
      [
        "al",
        "th"
      ],
      [
        "He",
        "alth"
      ],
      [
        "b",
        "u"
      ],
      [
        "t",
        "t"
      ],
      [
        "tA",
        "tt"
      ],
      [
        "ri",
        "bu"
      ],
      [
        "tAtt",
        "ribu"
      ],
      [
        "tAttribu",
        "te"
      ],
      [
        "Ġ1",
        "3"
      ],
      [
        "a",
        "it"
      ],
      [
        "Ġ2",
        "8"
      ],
      [
        "Ġ2",
        "0"
      ],
      [
        "Ġ1",
        "7"
      ],
      [
        "Se",
        "tAttribute"
      ],
      [
        "h",
        "azard"
      ],
      [
        "Ġ2",
        "2"
      ],
      [
        "S",
        "ave"
      ],
      [
        "p",
        "ad"
      ],
      [
        "s",
        "ave"
      ],
      [
        "Ġ",
        "key"
      ],
      [
        "Ġsav",
        "e"
      ],
      [
        "Ġn",
        "il"
      ],
      [
        "4",
        "5"
      ],
      [
        "w",
        "ait"
      ],
      [
        "Ġ2",
        "6"
      ],
      [
        "Ġ2",
        "7"
      ],
      [
        "1",
        "6"
      ],
      [
        "Ġ3",
        "3"
      ],
      [
        "(",
        "[&]"
      ],
      [
        "Ġ(",
        ")"
      ],
      [
        "([&]",
        "()"
      ],
      [
        "Ġ4",
        "5"
      ],
      [
        "Ġround",
        "Remote"
      ],
      [
        "1",
        "5"
      ],
      [
        "Ġ2",
        "3"
      ],
      [
        "Ġ",
        "hit"
      ],
      [
        "r",
        "ound"
      ],
      [
        "round",
        "Number"
      ],
      [
        "Ġ3",
        "2"
      ],
      [
        "5",
        "0"
      ],
      [
        "Cl",
        "ick"
      ],
      [
        "o",
        "p"
      ],
      [
        "o",
        "u"
      ],
      [
        "7",
        "5"
      ],
      [
        "Ġ2",
        "9"
      ],
      [
        "Ġs",
        "ound"
      ],
      [
        "Ġ",
        "pad"
      ],
      [
        "pt",
        "r"
      ],
      [
        "Ġround",
        "Number"
      ],
      [
        "Ġnull",
        "ptr"
      ],
      [
        "2",
        "2"
      ],
      [
        "A",
        "l"
      ],
      [
        "B",
        "u"
      ],
      [
        "0",
        "0"
      ],
      [
        "T",
        "ou"
      ],
      [
        "ch",
        "ed"
      ],
      [
        "Ġ3",
        "4"
      ],
      [
        "Tou",
        "ched"
      ],
      [
        "Ġ2",
        "1"
      ],
      [
        "Upgrade",
        "Lava"
      ],
      [
        "l",
        "Client"
      ],
      [
        "Fire",
        "Al"
      ],
      [
        "lClient",
        "s"
      ],
      [
        "FireAl",
        "lClients"
      ],
      [
        "Ġ2",
        "5"
      ],
      [
        "a",
        "s"
      ],
      [
        "Ġ",
        "hazard"
      ],
      [
        "as",
        "k"
      ],
      [
        "T",
        "ween"
      ],
      [
        "Ġ3",
        "6"
      ],
      [
        "Ġ4",
        "6"
      ],
      [
        "8",
        "8"
      ],
      [
        "Ġ3",
        "9"
      ],
      [
        "Ġ3",
        "5"
      ],
      [
        "Upgrade",
        "Coins"
      ],
      [
        "Upgrade",
        "Score"
      ],
      [
        "Upgrade",
        "Points"
      ],
      [
        "Upgrade",
        "Gems"
      ],
      [
        "Ġt",
        "ask"
      ],
      [
        "Bu",
        "sy"
      ],
      [
        "3",
        "5"
      ],
      [
        "7",
        "7"
      ],
      [
        "Ġ3",
        "8"
      ],
      [
        "p",
        "ut"
      ],
      [
        "Ġ3",
        "1"
      ],
      [
        "Ġ4",
        "0"
      ],
      [
        "Ġ6",
        "0"
      ],
      [
        "2",
        "0"
      ],
      [
        "3",
        "0"
      ],
      [
        "Ġ4",
        "4"
      ],
      [
        "Ġ7",
        "5"
      ],
      [
        "Ġ3",
        "7"
      ],
      [
        "ar",
        "ge"
      ],
      [
        "arge",
        "t"
      ],
      [
        "m",
        "e"
      ],
      [
        "Ġ4",
        "3"
      ],
      [
        "16",
        "6"
      ],
      [
        "a",
        "st"
      ],
      [
        "me",
        "tal"
      ],
      [
        "e",
        "xt"
      ],
      [
        "o",
        "d"
      ],
      [
        "o",
        "od"
      ],
      [
        "w",
        "ood"
      ],
      [
        "Ġ",
        "st"
      ],
      [
        "pl",
        "ast"
      ],
      [
        "ne",
        "on"
      ],
      [
        "Ġ4",
        "2"
      ],
      [
        "plast",
        "ic"
      ],
      [
        "Ġ",
        "do"
      ],
      [
        "A",
        "A"
      ],
      [
        "C",
        "C"
      ],
      [
        "AA",
        "FF"
      ],
      [
        "C",
        "FF"
      ],
      [
        "h",
        "t"
      ],
      [
        "ig",
        "ht"
      ],
      [
        "Ġ4",
        "7"
      ],
      [
        "FF",
        "D"
      ],
      [
        "77",
        "55"
      ],
      [
        "h",
        "op"
      ],
      [
        "4",
        "0"
      ],
      [
        "Ġ4",
        "1"
      ],
      [
        "e",
        "p"
      ],
      [
        "Ġ4",
        "8"
      ],
      [
        "Roll",
        "Score"
      ],
      [
        "Ġst",
        "ep"
      ],
      [
        "lo",
        "se"
      ],
      [
        "T",
        "ext"
      ],
      [
        "Ġt",
        "arget"
      ],
      [
        "Invoke",
        "Server"
      ],
      [
        "cl",
        "ient"
      ],
      [
        "T",
        "a"
      ],
      [
        "e",
        "ction"
      ],
      [
        "f",
        "or"
      ],
      [
        "Add",
        "Ta"
      ],
      [
        "Coll",
        "ection"
      ],
      [
        "AddTa",
        "g"
      ],
      [
        "Collection",
        "Service"
      ],
      [
        "Ġ5",
        "9"
      ],
      [
        "S",
        "o"
      ],
      [
        "ur",
        "ce"
      ],
      [
        "Lava",
        "Profile"
      ],
      [
        "Coins",
        "Profile"
      ],
      [
        "Score",
        "Profile"
      ],
      [
        "Points",
        "Profile"
      ],
      [
        "Gems",
        "Profile"
      ],
      [
        "Wins",
        "Profile"
      ],
      [
        "Ġ7",
        "8"
      ],
      [
        "Load",
        "Lava"
      ],
      [
        "Load",
        "Coins"
      ],
      [
        "Load",
        "Score"
      ],
      [
        "Load",
        "Points"
      ],
      [
        "Load",
        "Gems"
      ],
      [
        "Load",
        "Wins"
      ],
      [
        "So",
        "urce"
      ],
      [
        "S",
        "t"
      ],
      [
        "Ġ5",
        "0"
      ],
      [
        "Ġ4",
        "9"
      ],
      [
        "Ġ12",
        "0"
      ],
      [
        "Ġ6",
        "6"
      ],
      [
        "Ġ6",
        "9"
      ],
      [
        "Ġ7",
        "6"
      ],
      [
        "Ġ5",
        "6"
      ],
      [
        "Ġ9",
        "0"
      ],
      [
        "1",
        "9"
      ],
      [
        "Ġ5",
        "7"
      ],
      [
        "Ġ18",
        "0"
      ],
      [
        "Ġ5",
        "1"
      ],
      [
        "Ġ24",
        "0"
      ],
      [
        "Ġ5",
        "4"
      ],
      [
        "Ġ15",
        "0"
      ],
      [
        "c",
        "lose"
      ],
      [
        "en",
        "Tween"
      ],
      [
        "ase",
        "Value"
      ],
      [
        "Ġb",
        "aseValue"
      ],
      [
        "Ġ5",
        "2"
      ],
      [
        "Ġ6",
        "8"
      ],
      [
        "Ġ19",
        "5"
      ],
      [
        "op",
        "enTween"
      ],
      [
        "close",
        "Tween"
      ],
      [
        "Ġ6",
        "7"
      ],
      [
        "Ġ7",
        "9"
      ],
      [
        "Ġ7",
        "0"
      ],
      [
        "Ġ2",
        "10"
      ],
      [
        "Roll",
        "Lava"
      ],
      [
        "Roll",
        "Coins"
      ],
      [
        "Roll",
        "Gems"
      ],
      [
        "Roll",
        "Wins"
      ],
      [
        "Ġ10",
        "5"
      ],
      [
        "1",
        "8"
      ],
      [
        "Ġ",
        "wait"
      ],
      [
        "Ġ13",
        "5"
      ],
      [
        "Ġ16",
        "5"
      ],
      [
        "Ġ5",
        "8"
      ],
      [
        "Ġ7",
        "2"
      ],
      [
        "Rare",
        "Lava"
      ],
      [
        "Rare",
        "Coins"
      ],
      [
        "Rare",
        "Score"
      ],
      [
        "Rare",
        "Points"
      ],
      [
        "Rare",
        "Gems"
      ],
      [
        "Rare",
        "Wins"
      ],
      [
        "Ġ6",
        "3"
      ],
      [
        "Ġ7",
        "3"
      ],
      [
        "Ġ7",
        "7"
      ],
      [
        "1",
        "4"
      ],
      [
        "1",
        "7"
      ],
      [
        "K",
        "e"
      ],
      [
        "Ġ2",
        "25"
      ],
      [
        "Ġ30",
        "0"
      ],
      [
        "Ke",
        "y"
      ],
      [
        "1",
        "2"
      ],
      [
        "Ġ6",
        "5"
      ],
      [
        "Ġ27",
        "0"
      ],
      [
        "1",
        "3"
      ],
      [
        "in",
        "put"
      ],
      [
        "Co",
        "de"
      ],
      [
        "In",
        "put"
      ],
      [
        "Ġ7",
        "4"
      ],
      [
        "Key",
        "Code"
      ],
      [
        "Ġ5",
        "3"
      ],
      [
        "Ġ6",
        "2"
      ],
      [
        "Ġ6",
        "4"
      ],
      [
        "St",
        "art"
      ],
      [
        "Ġ2",
        "55"
      ],
      [
        "ight",
        "ing"
      ],
      [
        "Ġ33",
        "0"
      ],
      [
        "Ġ5",
        "5"
      ],
      [
        "Ġ3",
        "15"
      ],
      [
        "Ġ28",
        "5"
      ],
      [
        "l",
        "ava"
      ],
      [
        "Ġ3",
        "45"
      ],
      [
        "u",
        "i"
      ],
      [
        "Ġ6",
        "1"
      ],
      [
        "ne",
        "l"
      ],
      [
        "Ġ8",
        "0"
      ],
      [
        "s",
        "s"
      ],
      [
        "Ġs",
        "hop"
      ],
      [
        "L",
        "ighting"
      ],
      [
        "re",
        "mote"
      ],
      [
        "Ġ7",
        "1"
      ],
      [
        "u",
        "s"
      ],
      [
        "w",
        "hil"
      ],
      [
        "loc",
        "k"
      ],
      [
        "whil",
        "e"
      ],
      [
        "Ġ8",
        "1"
      ],
      [
        "Play",
        "ing"
      ],
      [
        "Ġ<",
        "="
      ],
      [
        "Finish",
        "ed"
      ],
      [
        "Start",
        "ing"
      ],
      [
        "Ġ",
        "p"
      ],
      [
        "Ġ",
        "en"
      ],
      [
        "2",
        "4"
      ],
      [
        "Ġ",
        "stat"
      ],
      [
        "si",
        "bl"
      ],
      [
        "Vi",
        "sibl"
      ],
      [
        "Visibl",
        "e"
      ],
      [
        "pa",
        "nel"
      ],
      [
        "S",
        "hop"
      ],
      [
        "2",
        "6"
      ],
      [
        "Ġ",
        "panel"
      ],
      [
        "Save",
        "Lava"
      ],
      [
        "Save",
        "Coins"
      ],
      [
        "Save",
        "Score"
      ],
      [
        "Save",
        "Points"
      ],
      [
        "Save",
        "Gems"
      ],
      [
        "Save",
        "Wins"
      ],
      [
        "ĠW",
        "ait"
      ],
      [
        "2",
        "3"
      ],
      [
        "Ġen",
        "abled"
      ],
      [
        "S",
        "to"
      ],
      [
        "Sto",
        "p"
      ],
      [
        "Ġ",
        "openTween"
      ],
      [
        "Ġ",
        "closeTween"
      ],
      [
        "Ġstat",
        "us"
      ],
      [
        "c",
        "ce"
      ],
      [
        "u",
        "cce"
      ],
      [
        "ucce",
        "ss"
      ],
      [
        "S",
        "k"
      ],
      [
        "W",
        "orkspace"
      ],
      [
        "Ge",
        "tAttribute"
      ],
      [
        "Sk",
        "y"
      ],
      [
        "\"",
        ";"
      ],
      [
        "1",
        "1"
      ],
      [
        "S",
        "h"
      ],
      [
        "s",
        "ound"
      ],
      [
        "2",
        "8"
      ],
      [
        "3",
        "3"
      ],
      [
        "B",
        "e"
      ],
      [
        "g",
        "an"
      ],
      [
        "User",
        "Input"
      ],
      [
        "Ġ9",
        "6"
      ],
      [
        "Input",
        "Be"
      ],
      [
        "UserInput",
        "Service"
      ],
      [
        "InputBe",
        "gan"
      ],
      [
        "3",
        "9"
      ],
      [
        "Ġ10",
        "0"
      ],
      [
        "3",
        "6"
      ],
      [
        "G",
        "ui"
      ],
      [
        "ĠPlayer",
        "Gui"
      ],
      [
        "Ġp",
        "rint"
      ],
      [
        "S",
        "ound"
      ],
      [
        "Ġ",
        "input"
      ],
      [
        "Click",
        "sound"
      ],
      [
        "2",
        "9"
      ],
      [
        "3",
        "7"
      ],
      [
        "3",
        "4"
      ],
      [
        "o",
        "pg"
      ],
      [
        "Add",
        "Lava"
      ],
      [
        "Ġ8",
        "4"
      ],
      [
        "Sh",
        "opg"
      ],
      [
        "Shopg",
        "ui"
      ],
      [
        "Ġ8",
        "7"
      ],
      [
        "3",
        "2"
      ],
      [
        "Ġ8",
        "6"
      ],
      [
        ".",
        "."
      ],
      [
        "3",
        "8"
      ],
      [
        "t",
        "arget"
      ],
      [
        "Ġ8",
        "8"
      ],
      [
        "Ġ9",
        "9"
      ],
      [
        "Ġ16",
        "8"
      ],
      [
        "Bu",
        "y"
      ],
      [
        "2",
        "7"
      ],
      [
        "3",
        "1"
      ],
      [
        "Ġ9",
        "8"
      ],
      [
        "Ġ8",
        "9"
      ],
      [
        "Ġ12",
        "9"
      ],
      [
        "Ġ14",
        "4"
      ],
      [
        "2",
        "1"
      ],
      [
        "d",
        "ated"
      ],
      [
        "p",
        "dated"
      ],
      [
        "u",
        "pdated"
      ],
      [
        "Ġ",
        "updated"
      ],
      [
        "Ġ13",
        "8"
      ],
      [
        "Ġupdated",
        "Text"
      ],
      [
        "Ġ1",
        "10"
      ],
      [
        "Ġ8",
        "5"
      ],
      [
        "Ġ10",
        "2"
      ],
      [
        "Ġ9",
        "3"
      ],
      [
        "Get",
        "Lava"
      ],
      [
        "Get",
        "Coins"
      ],
      [
        "Get",
        "Score"
      ],
      [
        "Get",
        "Points"
      ],
      [
        "Get",
        "Gems"
      ],
      [
        "Get",
        "Wins"
      ],
      [
        "Ġ18",
        "6"
      ],
      [
        "Ġ15",
        "6"
      ],
      [
        "Ġ9",
        "4"
      ],
      [
        "Ġ18",
        "9"
      ],
      [
        "Ġ16",
        "0"
      ],
      [
        "Ġ14",
        "0"
      ],
      [
        "ne",
        "ss"
      ],
      [
        "On",
        "Client"
      ],
      [
        "Upgrade",
        "Price"
      ],
      [
        "Ġ9",
        "5"
      ],
      [
        "Ġ13",
        "2"
      ],
      [
        "Ġ17",
        "0"
      ],
      [
        "Ġ17",
        "4"
      ],
      [
        "OnClient",
        "Event"
      ],
      [
        "Ġ10",
        "8"
      ],
      [
        "Ġ11",
        "4"
      ],
      [
        "Ġ15",
        "3"
      ],
      [
        "Ġ19",
        "0"
      ],
      [
        "Ġ20",
        "0"
      ],
      [
        "Ġ20",
        "4"
      ],
      [
        "Ġ17",
        "1"
      ],
      [
        "B",
        "r"
      ],
      [
        "C",
        "y"
      ],
      [
        "C",
        "lock"
      ],
      [
        "D",
        "ay"
      ],
      [
        "M",
        "o"
      ],
      [
        "N",
        "ight"
      ],
      [
        "S",
        "un"
      ],
      [
        "T",
        "im"
      ],
      [
        "Ġb",
        "lock"
      ],
      [
        "cl",
        "e"
      ],
      [
        "Ġ11",
        "1"
      ],
      [
        "Ġ11",
        "7"
      ],
      [
        "Ġ16",
        "2"
      ],
      [
        "Ġ15",
        "9"
      ],
      [
        "Ġ14",
        "7"
      ],
      [
        "Ġ13",
        "0"
      ],
      [
        "ight",
        "ness"
      ],
      [
        "Br",
        "ightness"
      ],
      [
        "Cy",
        "cle"
      ],
      [
        "Clock",
        "Tim"
      ],
      [
        "Day",
        "Night"
      ],
      [
        "Mo",
        "on"
      ],
      [
        "Sun",
        "Enabled"
      ],
      [
        "ClockTim",
        "e"
      ],
      [
        "DayNight",
        "Cycle"
      ],
      [
        "4",
        "1"
      ],
      [
        "4",
        "2"
      ],
      [
        "4",
        "7"
      ],
      [
        "4",
        "8"
      ],
      [
        "Reward",
        "Wins"
      ],
      [
        "Damage",
        "Points"
      ],
      [
        "Purchase",
        "Gems"
      ],
      [
        "Ġ12",
        "8"
      ],
      [
        "Ġ14",
        "6"
      ],
      [
        "Ġ19",
        "2"
      ],
      [
        "Ġ13",
        "6"
      ],
      [
        "Ġ28",
        "0"
      ],
      [
        "Ġ17",
        "7"
      ],
      [
        "Ġ17",
        "8"
      ],
      [
        "Click",
        "Coins"
      ],
      [
        "4",
        "9"
      ],
      [
        "7",
        "9"
      ],
      [
        "r",
        "ice"
      ],
      [
        "s",
        "uccess"
      ],
      [
        "Ġt",
        "ext"
      ],
      [
        "Ġ10",
        "4"
      ],
      [
        "Ġ18",
        "8"
      ],
      [
        "Ġ12",
        "3"
      ],
      [
        "Ġ12",
        "6"
      ],
      [
        "Ġ14",
        "1"
      ],
      [
        "Ġ22",
        "2"
      ],
      [
        "Ġ45",
        "0"
      ],
      [
        "Ġ23",
        "0"
      ],
      [
        "Ġ34",
        "0"
      ],
      [
        "Moon",
        "Enabled"
      ],
      [
        "9",
        "8"
      ],
      [
        "Ġ3",
        "50"
      ],
      [
        "Ġ4",
        "00"
      ],
      [
        "Ġ12",
        "7"
      ],
      [
        "Ġ19",
        "8"
      ],
      [
        "Ġ17",
        "2"
      ],
      [
        "Ġ17",
        "6"
      ],
      [
        "Ġ23",
        "1"
      ],
      [
        "4",
        "6"
      ],
      [
        "6",
        "4"
      ],
      [
        "9",
        "5"
      ],
      [
        "b",
        "lock"
      ],
      [
        "p",
        "rint"
      ],
      [
        "at",
        "us"
      ],
      [
        "Ġ10",
        "6"
      ],
      [
        "Ġ11",
        "2"
      ],
      [
        "Ġ18",
        "3"
      ],
      [
        "Ġ15",
        "4"
      ],
      [
        "Ġ14",
        "5"
      ],
      [
        "Ġ19",
        "6"
      ],
      [
        "Ġ22",
        "0"
      ],
      [
        "Ġ22",
        "8"
      ],
      [
        "Ġ29",
        "0"
      ],
      [
        "Ġ21",
        "3"
      ],
      [
        "Ġ21",
        "9"
      ],
      [
        "Ġ36",
        "0"
      ],
      [
        "Ġ44",
        "0"
      ],
      [
        "St",
        "atus"
      ],
      [
        "Ġp",
        "rice"
      ],
      [
        "4",
        "3"
      ],
      [
        "7",
        "1"
      ],
      [
        "9",
        "3"
      ],
      [
        "P",
        "a"
      ],
      [
        "Ġ2",
        "16"
      ],
      [
        "Ġ9",
        "2"
      ],
      [
        "Ġ18",
        "5"
      ],
      [
        "Ġ26",
        "0"
      ],
      [
        "Ġ23",
        "4"
      ],
      [
        "Ġ23",
        "7"
      ],
      [
        "Ġ32",
        "0"
      ],
      [
        "Ġ46",
        "0"
      ],
      [
        "Ġ38",
        "0"
      ],
      [
        "Shop",
        "Pa"
      ],
      [
        "ShopPa",
        "nel"
      ],
      [
        "6",
        "7"
      ],
      [
        "9",
        "4"
      ],
      [
        "9",
        "6"
      ],
      [
        "C",
        "lose"
      ],
      [
        "O",
        "p"
      ],
      [
        "P",
        "art"
      ],
      [
        "Ċ",
        "Ġ"
      ],
      [
        "Ġ",
        "Close"
      ],
      [
        "Ġ",
        "Op"
      ],
      [
        "en",
        "ed"
      ],
      [
        "art",
        "ed"
      ],
      [
        "Ġ1",
        "25"
      ],
      [
        "Ġ3",
        "10"
      ],
      [
        "Lava",
        "Data"
      ],
      [
        "Lava",
        "Source"
      ],
      [
        "Coins",
        "Data"
      ],
      [
        "Coins",
        "Source"
      ],
      [
        "Score",
        "Data"
      ],
      [
        "Score",
        "Source"
      ],
      [
        "Points",
        "Data"
      ],
      [
        "Points",
        "Source"
      ],
      [
        "Gems",
        "Data"
      ],
      [
        "Gems",
        "Source"
      ],
      [
        "Wins",
        "Data"
      ],
      [
        "Wins",
        "Source"
      ],
      [
        "Ġ9",
        "7"
      ],
      [
        "Ġ11",
        "6"
      ],
      [
        "Ġ11",
        "9"
      ],
      [
        "Ġ15",
        "5"
      ],
      [
        "Ġ24",
        "8"
      ],
      [
        "Ġ19",
        "7"
      ],
      [
        "Ġ17",
        "9"
      ],
      [
        "Ġst",
        "arted"
      ],
      [
        "ĠClose",
        "d"
      ],
      [
        "ĠOp",
        "ened"
      ],
      [
        "6",
        "6"
      ],
      [
        "7",
        "3"
      ],
      [
        "7",
        "4"
      ],
      [
        "7",
        "6"
      ],
      [
        "8",
        "7"
      ],
      [
        "Ġ2",
        "50"
      ],
      [
        "Ġ10",
        "1"
      ],
      [
        "Ġ8",
        "3"
      ],
      [
        "Round",
        "Start"
      ],
      [
        "Ġ16",
        "3"
      ],
      [
        "Ġ24",
        "3"
      ],
      [
        "Ġ13",
        "4"
      ],
      [
        "Ġ13",
        "7"
      ],
      [
        "Ġ20",
        "1"
      ],
      [
        "Ġ20",
        "7"
      ],
      [
        "Ġ26",
        "4"
      ],
      [
        "Ġ25",
        "6"
      ],
      [
        "Ġ39",
        "0"
      ],
      [
        "Ġ37",
        "0"
      ],
      [
        "Ġ47",
        "0"
      ],
      [
        "4",
        "4"
      ],
      [
        "8",
        "4"
      ],
      [
        "8",
        "5"
      ],
      [
        "9",
        "0"
      ],
      [
        "9",
        "2"
      ],
      [
        "9",
        "7"
      ],
      [
        "W",
        "ait"
      ],
      [
        "t",
        "ask"
      ],
      [
        "Ġ2",
        "05"
      ],
      [
        "Ġ4",
        "16"
      ],
      [
        "Ġ4",
        "30"
      ],
      [
        "Purchase",
        "d"
      ],
      [
        "Ġ11",
        "5"
      ],
      [
        "Ġ11",
        "8"
      ],
      [
        "Ġ18",
        "4"
      ],
      [
        "Ġ18",
        "7"
      ],
      [
        "Ġ16",
        "4"
      ],
      [
        "Ġ16",
        "6"
      ],
      [
        "Ġ12",
        "4"
      ],
      [
        "Ġ15",
        "2"
      ],
      [
        "Ġ15",
        "8"
      ],
      [
        "Ġ24",
        "6"
      ],
      [
        "Ġ23",
        "6"
      ],
      [
        "Ġ34",
        "8"
      ],
      [
        "..",
        "."
      ],
      [
        "Buy",
        "ing"
      ],
      [
        "6",
        "2"
      ],
      [
        "8",
        "1"
      ],
      [
        "9",
        "1"
      ],
      [
        "9",
        "9"
      ],
      [
        "S",
        "uccess"
      ],
      [
        "Ġ",
        "co"
      ],
      [
        "Reward",
        "Sound"
      ],
      [
        "Ġ3",
        "16"
      ],
      [
        "Ġ4",
        "10"
      ],
      [
        "Ġ10",
        "3"
      ],
      [
        "Ġ8",
        "2"
      ],
      [
        "Ġ16",
        "1"
      ],
      [
        "Ġ20",
        "8"
      ],
      [
        "Ġ27",
        "2"
      ],
      [
        "Ġ21",
        "2"
      ],
      [
        "Ġ38",
        "4"
      ],
      [
        "6",
        "9"
      ],
      [
        "7",
        "0"
      ],
      [
        "8",
        "2"
      ],
      [
        "N",
        "o"
      ],
      [
        "a",
        "mount"
      ],
      [
        "Ġ",
        "amount"
      ],
      [
        "er",
        "t"
      ],
      [
        "Ġ4",
        "20"
      ],
      [
        "Ġ9",
        "1"
      ],
      [
        "Ġ18",
        "2"
      ],
      [
        "Ġ12",
        "1"
      ],
      [
        "Ġ14",
        "8"
      ],
      [
        "Ġ30",
        "4"
      ],
      [
        "Ġ30",
        "8"
      ],
      [
        "Ġ19",
        "4"
      ],
      [
        "Ġ20",
        "6"
      ],
      [
        "Ġ17",
        "5"
      ],
      [
        "Ġ23",
        "2"
      ],
      [
        "Click",
        "Sound"
      ],
      [
        "Al",
        "ert"
      ],
      [
        "Ġ21",
        "4"
      ],
      [
        "Ġ42",
        "6"
      ],
      [
        "6",
        "0"
      ],
      [
        "6",
        "8"
      ],
      [
        "7",
        "8"
      ],
      [
        "8",
        "0"
      ],
      [
        "8",
        "6"
      ],
      [
        "Ġ3",
        "75"
      ],
      [
        "Ġ4",
        "35"
      ],
      [
        "Ġ14",
        "2"
      ],
      [
        "Ġ22",
        "4"
      ],
      [
        "Ġ33",
        "2"
      ],
      [
        "Ġ23",
        "8"
      ],
      [
        "Ġ36",
        "5"
      ],
      [
        "Ġ39",
        "2"
      ],
      [
        "Ġ40",
        "8"
      ],
      [
        "5",
        "6"
      ],
      [
        "6",
        "3"
      ],
      [
        "l",
        "ighting"
      ],
      [
        "Ġ4",
        "25"
      ],
      [
        "Ġ10",
        "7"
      ],
      [
        "Ġ10",
        "9"
      ],
      [
        "Ġ18",
        "1"
      ],
      [
        "Ġ16",
        "7"
      ],
      [
        "Ġ16",
        "9"
      ],
      [
        "Ġ12",
        "2"
      ],
      [
        "Ġ15",
        "1"
      ],
      [
        "Ġ15",
        "7"
      ],
      [
        "Ġ24",
        "4"
      ],
      [
        "Ġ14",
        "3"
      ],
      [
        "Ġ14",
        "9"
      ],
      [
        "Ġ28",
        "2"
      ],
      [
        "Ġ45",
        "2"
      ],
      [
        "Ġ32",
        "4"
      ],
      [
        "Ġ46",
        "8"
      ],
      [
        "Ġ35",
        "8"
      ],
      [
        "Ġ31",
        "2"
      ],
      [
        "Ġ37",
        "2"
      ],
      [
        "Ġ37",
        "6"
      ],
      [
        "Ġ43",
        "4"
      ],
      [
        "Ġ48",
        "0"
      ],
      [
        "6",
        "1"
      ],
      [
        "7",
        "2"
      ],
      [
        "Ġ2",
        "15"
      ],
      [
        "Ġ3",
        "55"
      ],
      [
        "Ġ11",
        "3"
      ],
      [
        "Ġ24",
        "7"
      ],
      [
        "Ġ30",
        "6"
      ],
      [
        "Ġ19",
        "1"
      ],
      [
        "Ġ19",
        "9"
      ],
      [
        "Ġ13",
        "9"
      ],
      [
        "Ġ20",
        "2"
      ],
      [
        "Ġ22",
        "1"
      ],
      [
        "Ġ22",
        "3"
      ],
      [
        "Ġ22",
        "9"
      ],
      [
        "Ġ26",
        "3"
      ],
      [
        "Ġ26",
        "5"
      ],
      [
        "Ġ27",
        "4"
      ],
      [
        "Ġ33",
        "3"
      ],
      [
        "Ġ33",
        "6"
      ],
      [
        "Ġ45",
        "9"
      ],
      [
        "Ġ23",
        "9"
      ],
      [
        "Ġ29",
        "1"
      ],
      [
        "Ġ29",
        "7"
      ],
      [
        "Ġ29",
        "8"
      ],
      [
        "Ġ34",
        "4"
      ],
      [
        "Ġ25",
        "7"
      ],
      [
        "Ġ25",
        "8"
      ],
      [
        "Ġ36",
        "6"
      ],
      [
        "Ġ36",
        "8"
      ],
      [
        "Ġ39",
        "9"
      ],
      [
        "Ġ35",
        "7"
      ],
      [
        "Ġ38",
        "2"
      ],
      [
        "Ġ31",
        "4"
      ],
      [
        "Ġ44",
        "2"
      ],
      [
        "Ġ37",
        "4"
      ],
      [
        "Ġ41",
        "8"
      ],
      [
        "5",
        "7"
      ],
      [
        "6",
        "5"
      ],
      [
        "8",
        "9"
      ],
      [
        "g",
        "h"
      ],
      [
        "Ġ",
        "ne"
      ],
      [
        "Reward",
        "Round"
      ],
      [
        "Ġs",
        "uccess"
      ],
      [
        "Ġ5",
        "20"
      ],
      [
        "Upgrade",
        "Round"
      ],
      [
        "xt",
        "Price"
      ],
      [
        "Roll",
        "Round"
      ],
      [
        "Damage",
        "Round"
      ],
      [
        "Purchase",
        "Round"
      ],
      [
        "Round",
        "Round"
      ],
      [
        "Ġ24",
        "2"
      ],
      [
        "Ġ24",
        "9"
      ],
      [
        "Ġ19",
        "3"
      ],
      [
        "Ġ13",
        "1"
      ],
      [
        "Ġ13",
        "3"
      ],
      [
        "Ġ28",
        "8"
      ],
      [
        "Ġ17",
        "3"
      ],
      [
        "Ġ22",
        "6"
      ],
      [
        "Ġ26",
        "2"
      ],
      [
        "Ġ26",
        "8"
      ],
      [
        "Ġ27",
        "3"
      ],
      [
        "Ġ27",
        "6"
      ],
      [
        "ou",
        "gh"
      ],
      [
        "Ġ29",
        "6"
      ],
      [
        "Ġ21",
        "8"
      ],
      [
        "Ġ25",
        "2"
      ],
      [
        "Ġ25",
        "3"
      ],
      [
        "Ġ25",
        "4"
      ],
      [
        "Ġ35",
        "2"
      ],
      [
        "Ġ44",
        "8"
      ],
      [
        "Ġ41",
        "7"
      ],
      [
        "Ġ78",
        "0"
      ],
      [
        "Ġ56",
        "0"
      ],
      [
        "Ġen",
        "ough"
      ],
      [
        "...",
        "\";"
      ],
      [
        "Ġco",
        "unt"
      ],
      [
        "No",
        "t"
      ],
      [
        "5",
        "1"
      ],
      [
        "5",
        "2"
      ],
      [
        "5",
        "9"
      ],
      [
        "8",
        "3"
      ],
      [
        "Ġ5",
        "40"
      ],
      [
        "Ġ3",
        "88"
      ],
      [
        "Ġ4",
        "55"
      ],
      [
        "Ġ4",
        "45"
      ],
      [
        "Ġ6",
        "10"
      ],
      [
        "Ġ6",
        "20"
      ],
      [
        "Ġ6",
        "40"
      ],
      [
        "Ġ7",
        "20"
      ],
      [
        "Ġ24",
        "5"
      ],
      [
        "Ġ30",
        "7"
      ],
      [
        "Ġ28",
        "1"
      ],
      [
        "Ġ28",
        "9"
      ],
      [
        "Ġ33",
        "1"
      ],
      [
        "Ġ33",
        "8"
      ],
      [
        "Ġ45",
        "1"
      ],
      [
        "Ġ45",
        "6"
      ],
      [
        "Ġ23",
        "5"
      ],
      [
        "Ġ32",
        "3"
      ],
      [
        "Ġ32",
        "8"
      ],
      [
        "Ġ29",
        "9"
      ],
      [
        "Ġ34",
        "1"
      ],
      [
        "Ġ34",
        "9"
      ],
      [
        "Ġ36",
        "7"
      ],
      [
        "Ġ46",
        "5"
      ],
      [
        "Ġ46",
        "7"
      ],
      [
        "Ġ46",
        "9"
      ],
      [
        "Ġ39",
        "1"
      ],
      [
        "Ġ38",
        "3"
      ],
      [
        "Ġ40",
        "1"
      ],
      [
        "Ġ40",
        "6"
      ],
      [
        "Ġ40",
        "9"
      ],
      [
        "Ġ44",
        "3"
      ],
      [
        "Ġ43",
        "2"
      ],
      [
        "Ġ43",
        "3"
      ],
      [
        "Ġ42",
        "4"
      ],
      [
        "Ġ47",
        "4"
      ],
      [
        "5",
        "4"
      ],
      [
        "Ġ",
        "KeyCode"
      ],
      [
        "en",
        "abled"
      ],
      [
        "Ġ5",
        "10"
      ],
      [
        "Ġ5",
        "30"
      ],
      [
        "Ġ3",
        "05"
      ],
      [
        "Ġ4",
        "05"
      ],
      [
        "Ġ4",
        "22"
      ],
      [
        "Ġ6",
        "50"
      ],
      [
        "Ġ7",
        "10"
      ],
      [
        "Ġ7",
        "00"
      ],
      [
        "Ġ7",
        "30"
      ],
      [
        "Se",
        "t"
      ],
      [
        "Ġ8",
        "10"
      ],
      [
        "Ġ28",
        "4"
      ],
      [
        "Ġ28",
        "6"
      ],
      [
        "Ġ26",
        "1"
      ],
      [
        "Ġ23",
        "3"
      ],
      [
        "Ġ32",
        "1"
      ],
      [
        "Ġ32",
        "2"
      ],
      [
        "Ġ32",
        "6"
      ],
      [
        "Ġ29",
        "2"
      ],
      [
        "Ġ29",
        "4"
      ],
      [
        "Ġ21",
        "7"
      ],
      [
        "Ġ25",
        "1"
      ],
      [
        "Ġ36",
        "2"
      ],
      [
        "Ġ36",
        "4"
      ],
      [
        "Ġ46",
        "2"
      ],
      [
        "Ġ46",
        "4"
      ],
      [
        "Ġ46",
        "6"
      ],
      [
        "Ġ39",
        "4"
      ],
      [
        "Ġ39",
        "6"
      ],
      [
        "Ġ39",
        "8"
      ],
      [
        "Ġ35",
        "4"
      ],
      [
        "Ġ35",
        "6"
      ],
      [
        "Ġ31",
        "8"
      ],
      [
        "Ġ44",
        "4"
      ],
      [
        "Ġ42",
        "3"
      ],
      [
        "Ġ47",
        "2"
      ],
      [
        "Ġ41",
        "2"
      ],
      [
        "Ġstep",
        "s"
      ],
      [
        "Ġ49",
        "0"
      ],
      [
        "Ġ76",
        "0"
      ],
      [
        "Ġ79",
        "0"
      ],
      [
        "Ġstat",
        "e"
      ],
      [
        "Ġ5",
        "50"
      ],
      [
        "Ġ5",
        "00"
      ],
      [
        "Ġ3",
        "77"
      ],
      [
        "Ġ24",
        "1"
      ],
      [
        "Ġ30",
        "2"
      ],
      [
        "Ġ30",
        "3"
      ],
      [
        "Ġ28",
        "7"
      ],
      [
        "Ġ20",
        "3"
      ],
      [
        "Ġ20",
        "9"
      ],
      [
        "Ġ22",
        "7"
      ],
      [
        "Ġ26",
        "6"
      ],
      [
        "Ġ27",
        "5"
      ],
      [
        "Ġ27",
        "8"
      ],
      [
        "Ġ27",
        "9"
      ],
      [
        "16",
        "1"
      ],
      [
        "Ġ33",
        "4"
      ],
      [
        "Ġ33",
        "5"
      ],
      [
        "Ġ33",
        "9"
      ],
      [
        "Ġ45",
        "3"
      ],
      [
        "Ġ45",
        "4"
      ],
      [
        "Ġ45",
        "7"
      ],
      [
        "Ġ45",
        "8"
      ],
      [
        "15",
        "2"
      ],
      [
        "Ġ29",
        "5"
      ],
      [
        "Ġ34",
        "2"
      ],
      [
        "Ġ34",
        "6"
      ],
      [
        "Ġ21",
        "1"
      ],
      [
        "Ġ25",
        "9"
      ],
      [
        "Ġ39",
        "3"
      ],
      [
        "Ġ35",
        "1"
      ],
      [
        "Ġ38",
        "1"
      ],
      [
        "Ġ38",
        "6"
      ],
      [
        "Ġ38",
        "7"
      ],
      [
        "Ġ38",
        "9"
      ],
      [
        "Ġ40",
        "2"
      ],
      [
        "Ġ40",
        "4"
      ],
      [
        "Ġ44",
        "1"
      ],
      [
        "Ġ44",
        "6"
      ],
      [
        "Ġ44",
        "7"
      ],
      [
        "Ġ37",
        "8"
      ],
      [
        "Ġ43",
        "6"
      ],
      [
        "Ġ43",
        "8"
      ],
      [
        "Ġ42",
        "8"
      ],
      [
        "Ġ41",
        "4"
      ],
      [
        "19",
        "2"
      ],
      [
        "Ġ68",
        "0"
      ],
      [
        "Ġ67",
        "0"
      ],
      [
        "12",
        "7"
      ],
      [
        "13",
        "8"
      ],
      [
        "5",
        "8"
      ],
      [
        "G",
        "i"
      ],
      [
        "a",
        "b"
      ],
      [
        "d",
        "i"
      ],
      [
        "e",
        "vent"
      ],
      [
        "e",
        "Coins"
      ],
      [
        "l",
        "ab"
      ],
      [
        "v",
        "eCoins"
      ],
      [
        "Ġ",
        "d"
      ],
      [
        "ad",
        "y"
      ],
      [
        "te",
        "xt"
      ],
      [
        "Ġ3",
        "25"
      ],
      [
        "Ġ4",
        "15"
      ],
      [
        "Ġ6",
        "00"
      ],
      [
        "Ġ6",
        "30"
      ],
      [
        "Ġ8",
        "00"
      ],
      [
        "10",
        "0"
      ],
      [
        "Ġ30",
        "9"
      ],
      [
        "Ġ26",
        "7"
      ],
      [
        "16",
        "9"
      ],
      [
        "15",
        "8"
      ],
      [
        "Ġ32",
        "7"
      ],
      [
        "Ġ36",
        "3"
      ],
      [
        "Ġ36",
        "9"
      ],
      [
        "Ġ39",
        "5"
      ],
      [
        "Ġ38",
        "5"
      ],
      [
        "Ġ42",
        "9"
      ],
      [
        "Ġ47",
        "1"
      ],
      [
        "Ġ41",
        "1"
      ],
      [
        "Ġ59",
        "0"
      ],
      [
        "19",
        "5"
      ],
      [
        "19",
        "7"
      ],
      [
        "19",
        "8"
      ],
      [
        "Ġ57",
        "0"
      ],
      [
        "18",
        "1"
      ],
      [
        "18",
        "6"
      ],
      [
        "14",
        "1"
      ],
      [
        "14",
        "4"
      ],
      [
        "14",
        "7"
      ],
      [
        "17",
        "2"
      ],
      [
        "12",
        "1"
      ],
      [
        "Gi",
        "veCoins"
      ],
      [
        "di",
        "o"
      ],
      [
        "lab",
        "el"
      ],
      [
        "1",
        "45"
      ],
      [
        "1",
        "14"
      ],
      [
        "Ġ",
        "lava"
      ],
      [
        "Ġ5",
        "25"
      ],
      [
        "Ġ7",
        "50"
      ],
      [
        "Ġ7",
        "40"
      ],
      [
        "10",
        "5"
      ],
      [
        "10",
        "6"
      ],
      [
        "Ġ30",
        "1"
      ],
      [
        "Ġ28",
        "3"
      ],
      [
        "Ġ26",
        "9"
      ],
      [
        "Ġ27",
        "1"
      ],
      [
        "Ġ27",
        "7"
      ],
      [
        "16",
        "4"
      ],
      [
        "16",
        "8"
      ],
      [
        "Ġ33",
        "7"
      ],
      [
        "15",
        "3"
      ],
      [
        "15",
        "4"
      ],
      [
        "15",
        "9"
      ],
      [
        "Ġ32",
        "9"
      ],
      [
        "Ġ29",
        "3"
      ],
      [
        "Ġ34",
        "3"
      ],
      [
        "Ġ34",
        "7"
      ],
      [
        "Ġ36",
        "1"
      ],
      [
        "Ġ46",
        "1"
      ],
      [
        "Ġ46",
        "3"
      ],
      [
        "Ġ39",
        "7"
      ],
      [
        "Ġ35",
        "3"
      ],
      [
        "Ġ35",
        "9"
      ],
      [
        "Ġ31",
        "1"
      ],
      [
        "Ġ31",
        "3"
      ],
      [
        "Ġ31",
        "7"
      ],
      [
        "Ġ31",
        "9"
      ],
      [
        "Ġ40",
        "3"
      ],
      [
        "Ġ40",
        "7"
      ],
      [
        "Ġ44",
        "9"
      ],
      [
        "Ġ37",
        "1"
      ],
      [
        "Ġ37",
        "3"
      ],
      [
        "Ġ37",
        "9"
      ],
      [
        "Ġ43",
        "1"
      ],
      [
        "Ġ43",
        "7"
      ],
      [
        "Ġ43",
        "9"
      ],
      [
        "Ġ42",
        "1"
      ],
      [
        "Ġ42",
        "7"
      ],
      [
        "Ġ47",
        "3"
      ],
      [
        "Ġ41",
        "3"
      ],
      [
        "Ġ41",
        "9"
      ],
      [
        "Ġ66",
        "0"
      ],
      [
        "Ġ69",
        "0"
      ],
      [
        "19",
        "0"
      ],
      [
        "19",
        "9"
      ],
      [
        "18",
        "4"
      ],
      [
        "18",
        "9"
      ],
      [
        "Ġ58",
        "0"
      ],
      [
        "Ġ77",
        "0"
      ],
      [
        "14",
        "3"
      ],
      [
        "17",
        "8"
      ],
      [
        "17",
        "9"
      ],
      [
        "12",
        "4"
      ],
      [
        "12",
        "9"
      ],
      [
        "13",
        "2"
      ],
      [
        "13",
        "6"
      ],
      [
        "24",
        "2"
      ],
      [
        "1",
        "25"
      ],
      [
        "1",
        "16"
      ],
      [
        "1",
        "88"
      ],
      [
        "1",
        "77"
      ],
      [
        "1",
        "20"
      ],
      [
        "1",
        "40"
      ],
      [
        "1",
        "19"
      ],
      [
        "1",
        "18"
      ],
      [
        "5",
        "3"
      ],
      [
        "F",
        "o"
      ],
      [
        "Y",
        "ou"
      ],
      [
        "c",
        "on"
      ],
      [
        "c",
        "im"
      ],
      [
        "g",
        "en"
      ],
      [
        "o",
        "w"
      ],
      [
        "s",
        "cript"
      ],
      [
        "Ġ",
        "gen"
      ],
      [
        "ad",
        "ow"
      ],
      [
        "ne",
        "xtPrice"
      ],
      [
        "Ġ5",
        "55"
      ],
      [
        "Ġf",
        "or"
      ],
      [
        "10",
        "1"
      ],
      [
        "10",
        "2"
      ],
      [
        "10",
        "4"
      ],
      [
        "10",
        "7"
      ],
      [
        "10",
        "9"
      ],
      [
        "era",
        "tor"
      ],
      [
        "16",
        "0"
      ],
      [
        "16",
        "3"
      ],
      [
        "16",
        "7"
      ],
      [
        "15",
        "0"
      ],
      [
        "15",
        "1"
      ],
      [
        "15",
        "6"
      ],
      [
        "19",
        "1"
      ],
      [
        "18",
        "2"
      ],
      [
        "18",
        "3"
      ],
      [
        "14",
        "6"
      ],
      [
        "17",
        "0"
      ],
      [
        "17",
        "1"
      ],
      [
        "17",
        "4"
      ],
      [
        "17",
        "6"
      ],
      [
        "12",
        "3"
      ],
      [
        "12",
        "8"
      ],
      [
        "13",
        "4"
      ],
      [
        "13",
        "7"
      ],
      [
        "26",
        "0"
      ],
      [
        "11",
        "1"
      ],
      [
        "Sh",
        "adow"
      ],
      [
        "...",
        "\""
      ],
      [
        "Ġne",
        "ed"
      ],
      [
        "Ġne",
        "xtPrice"
      ],
      [
        "Fo",
        "g"
      ],
      [
        "con",
        "d"
      ],
      [
        "cim",
        "al"
      ],
      [
        "Ġgen",
        "erator"
      ],
      [
        "0",
        "1"
      ],
      [
        "0",
        "2"
      ],
      [
        "1",
        "10"
      ],
      [
        "1",
        "55"
      ],
      [
        "1",
        "15"
      ],
      [
        "1",
        "75"
      ],
      [
        "1",
        "22"
      ],
      [
        "1",
        "35"
      ],
      [
        "1",
        "30"
      ],
      [
        "1",
        "17"
      ],
      [
        "1",
        "12"
      ],
      [
        "1",
        "13"
      ],
      [
        "Ġ6",
        "05"
      ],
      [
        "25",
        "4"
      ],
      [
        "Ġ9",
        "55"
      ],
      [
        "Ġ9",
        "33"
      ],
      [
        "10",
        "3"
      ],
      [
        "10",
        "8"
      ],
      [
        "16",
        "2"
      ],
      [
        "16",
        "5"
      ],
      [
        "15",
        "7"
      ],
      [
        "22",
        "3"
      ],
      [
        "22",
        "6"
      ],
      [
        "22",
        "9"
      ],
      [
        "19",
        "3"
      ],
      [
        "19",
        "4"
      ],
      [
        "19",
        "6"
      ],
      [
        "18",
        "0"
      ],
      [
        "18",
        "5"
      ],
      [
        "18",
        "7"
      ],
      [
        "14",
        "2"
      ],
      [
        "14",
        "8"
      ],
      [
        "14",
        "9"
      ],
      [
        "17",
        "3"
      ],
      [
        "12",
        "6"
      ],
      [
        "13",
        "1"
      ],
      [
        "13",
        "3"
      ],
      [
        "13",
        "9"
      ],
      [
        "24",
        "6"
      ],
      [
        "24",
        "9"
      ],
      [
        "0",
        "4"
      ],
      [
        "0",
        "9"
      ],
      [
        "A",
        "u"
      ],
      [
        "e",
        "ger"
      ],
      [
        "i",
        "s"
      ],
      [
        "i",
        "rst"
      ],
      [
        "p",
        "e"
      ],
      [
        "r",
        "on"
      ],
      [
        "w",
        "ron"
      ],
      [
        "Ġ",
        "se"
      ],
      [
        "Ġ",
        "au"
      ],
      [
        "Ġ",
        "int"
      ],
      [
        "Ġ",
        "de"
      ],
      [
        "Ġ",
        "event"
      ],
      [
        "Ġ",
        "label"
      ],
      [
        "pl",
        "ay"
      ],
      [
        "re",
        "ady"
      ],
      [
        "en",
        "tor"
      ],
      [
        "ti",
        "ce"
      ],
      [
        "stat",
        "e"
      ],
      [
        "Ġ5",
        "35"
      ],
      [
        "Ġf",
        "irst"
      ],
      [
        "Ġ4",
        "75"
      ],
      [
        "Ġ4",
        "88"
      ],
      [
        "En",
        "d"
      ],
      [
        "Ġ6",
        "45"
      ],
      [
        "Ġ6",
        "35"
      ],
      [
        "Ġ7",
        "25"
      ],
      [
        "Ġ7",
        "05"
      ],
      [
        "Ġ7",
        "12"
      ],
      [
        "Play",
        "Sound"
      ],
      [
        "Damage",
        "Event"
      ],
      [
        "Ġ8",
        "05"
      ],
      [
        "Ġ8",
        "75"
      ],
      [
        "25",
        "3"
      ],
      [
        "Ġ9",
        "45"
      ],
      [
        "Ġ9",
        "50"
      ],
      [
        "Ġ9",
        "75"
      ],
      [
        "Get",
        "Reward"
      ],
      [
        "Save",
        "Player"
      ],
      [
        "Click",
        "er"
      ],
      [
        "22",
        "0"
      ],
      [
        "22",
        "2"
      ],
      [
        "20",
        "6"
      ],
      [
        "20",
        "9"
      ],
      [
        "St",
        "ate"
      ],
      [
        "Ġ50",
        "4"
      ],
      [
        "Ġ50",
        "8"
      ],
      [
        "Ġ49",
        "6"
      ],
      [
        "Ġ69",
        "5"
      ],
      [
        "Ġ57",
        "6"
      ],
      [
        "Ġ51",
        "2"
      ],
      [
        "Ġ52",
        "8"
      ],
      [
        "24",
        "3"
      ],
      [
        "24",
        "4"
      ],
      [
        "26",
        "3"
      ],
      [
        "23",
        "2"
      ],
      [
        "28",
        "0"
      ],
      [
        "Ġ86",
        "5"
      ],
      [
        "No",
        "tice"
      ],
      [
        "Ġd",
        "ice"
      ],
      [
        "Ġd",
        "amage"
      ],
      [
        "Au",
        "dio"
      ],
      [
        "is",
        "sing"
      ],
      [
        "wron",
        "g"
      ],
      [
        "Ġse",
        "cond"
      ],
      [
        "Ġau",
        "dio"
      ],
      [
        "Ġint",
        "eger"
      ],
      [
        "Ġde",
        "cimal"
      ],
      [
        "entor",
        "y"
      ],
      [
        "0",
        "3"
      ],
      [
        "2",
        "15"
      ],
      [
        "2",
        "35"
      ],
      [
        "2",
        "40"
      ],
      [
        "2",
        "17"
      ],
      [
        "2",
        "13"
      ],
      [
        "D",
        "en"
      ],
      [
        "i",
        "ed"
      ],
      [
        "o",
        "ints"
      ],
      [
        "w",
        "ins"
      ],
      [
        "Ġ",
        "ge"
      ],
      [
        "Ġ",
        "wins"
      ],
      [
        "Ġs",
        "core"
      ],
      [
        "Ġ5",
        "16"
      ],
      [
        "Ġ5",
        "77"
      ],
      [
        "Ġ10",
        "26"
      ],
      [
        "Ġ6",
        "88"
      ],
      [
        "Ġ7",
        "75"
      ],
      [
        "Ġ7",
        "88"
      ],
      [
        "Ġ7",
        "35"
      ],
      [
        "Ġ7",
        "138"
      ],
      [
        "Ġ8",
        "37"
      ],
      [
        "Ġ8",
        "192"
      ],
      [
        "25",
        "1"
      ],
      [
        "25",
        "2"
      ],
      [
        "25",
        "8"
      ],
      [
        "25",
        "9"
      ],
      [
        "Ġ9",
        "05"
      ],
      [
        "Ġ9",
        "77"
      ],
      [
        "Ġ9",
        "246"
      ],
      [
        "Purchase",
        "Sound"
      ],
      [
        "Ġ11",
        "88"
      ],
      [
        "Ġ14",
        "26"
      ],
      [
        "Ġ13",
        "41"
      ],
      [
        "Ġ23",
        "95"
      ],
      [
        "Ġ29",
        "22"
      ],
      [
        "22",
        "1"
      ],
      [
        "22",
        "4"
      ],
      [
        "22",
        "8"
      ],
      [
        "Ġ34",
        "49"
      ],
      [
        "88",
        "0"
      ],
      [
        "88",
        "9"
      ],
      [
        "Ġ39",
        "76"
      ],
      [
        "Ġ60",
        "84"
      ],
      [
        "20",
        "4"
      ],
      [
        "20",
        "7"
      ],
      [
        "20",
        "8"
      ],
      [
        "Ġ48",
        "4"
      ],
      [
        "Ġ50",
        "2"
      ],
      [
        "Ġ50",
        "6"
      ],
      [
        "Ġ50",
        "30"
      ],
      [
        "Ġ49",
        "5"
      ],
      [
        "Ġ49",
        "8"
      ],
      [
        "Ġ66",
        "11"
      ],
      [
        "Ġ76",
        "65"
      ],
      [
        "Ġ52",
        "4"
      ],
      [
        "Ġp",
        "oints"
      ],
      [
        "26",
        "1"
      ],
      [
        "26",
        "2"
      ],
      [
        "23",
        "1"
      ],
      [
        "23",
        "3"
      ],
      [
        "23",
        "6"
      ],
      [
        "23",
        "7"
      ],
      [
        "23",
        "8"
      ],
      [
        "28",
        "3"
      ],
      [
        "39",
        "9"
      ],
      [
        "36",
        "2"
      ],
      [
        "Ġ87",
        "19"
      ],
      [
        "Ġ186",
        "8"
      ],
      [
        "Ġ450",
        "3"
      ],
      [
        "Ġco",
        "ins"
      ],
      [
        "Ġ555",
        "7"
      ],
      [
        "Den",
        "ied"
      ],
      [
        "Ġge",
        "ms"
      ],
      [
        "Ġ977",
        "3"
      ],
      [
        "0",
        "6"
      ],
      [
        "0",
        "7"
      ],
      [
        "2",
        "25"
      ],
      [
        "2",
        "10"
      ],
      [
        "2",
        "05"
      ],
      [
        "2",
        "45"
      ],
      [
        "2",
        "16"
      ],
      [
        "2",
        "00"
      ],
      [
        "2",
        "30"
      ],
      [
        "2",
        "19"
      ],
      [
        "2",
        "18"
      ],
      [
        "2",
        "14"
      ],
      [
        "2",
        "12"
      ],
      [
        "2",
        "11"
      ],
      [
        "7",
        "280"
      ],
      [
        "A",
        "v"
      ],
      [
        "C",
        "ast"
      ],
      [
        "D",
        "e"
      ],
      [
        "D",
        "ice"
      ],
      [
        "F",
        "r"
      ],
      [
        "G",
        "lo"
      ],
      [
        "L",
        "in"
      ],
      [
        "M",
        "as"
      ],
      [
        "M",
        "issing"
      ],
      [
        "P",
        "h"
      ],
      [
        "S",
        "of"
      ],
      [
        "T",
        "ransparency"
      ],
      [
        "V",
        "o"
      ],
      [
        "a",
        "f"
      ],
      [
        "a",
        "ctivated"
      ],
      [
        "a",
        "pe"
      ],
      [
        "b",
        "e"
      ],
      [
        "b",
        "al"
      ],
      [
        "d",
        "Swing"
      ],
      [
        "f",
        "ore"
      ],
      [
        "h",
        "er"
      ],
      [
        "k",
        "ed"
      ],
      [
        "m",
        "issing"
      ],
      [
        "n",
        "am"
      ],
      [
        "p",
        "ur"
      ],
      [
        "p",
        "rice"
      ],
      [
        "s",
        "av"
      ],
      [
        "t",
        "er"
      ],
      [
        "t",
        "ness"
      ],
      [
        "u",
        "tion"
      ],
      [
        "u",
        "ched"
      ],
      [
        "v",
        "entory"
      ],
      [
        "y",
        "si"
      ],
      [
        "Ġ",
        "i"
      ],
      [
        "Ġ",
        "to"
      ],
      [
        "Ġ",
        "in"
      ],
      [
        "Ġ",
        "Lava"
      ],
      [
        "Ġ",
        "Coins"
      ],
      [
        "Ġ",
        "Score"
      ],
      [
        "Ġ",
        "Points"
      ],
      [
        "Ġ",
        "Gems"
      ],
      [
        "Ġ",
        "Lighting"
      ],
      [
        "Ġ",
        "lighting"
      ],
      [
        "Ġ",
        "missing"
      ],
      [
        "pl",
        "e"
      ],
      [
        "re",
        "pe"
      ],
      [
        "al",
        "ysi"
      ],
      [
        "at",
        "ar"
      ],
      [
        "st",
        "it"
      ],
      [
        "Ġre",
        "ady"
      ],
      [
        "ti",
        "l"
      ],
      [
        "ic",
        "tion"
      ],
      [
        "Re",
        "ady"
      ],
      [
        "Re",
        "stit"
      ],
      [
        "un",
        "til"
      ],
      [
        "(\"",
        "#"
      ],
      [
        "co",
        "lor"
      ],
      [
        "ch",
        "End"
      ],
      [
        "lu",
        "me"
      ],
      [
        "Server",
        "Audio"
      ],
      [
        "Ġth",
        "e"
      ],
      [
        "Ġ}",
        ")"
      ],
      [
        "Co",
        "unt"
      ],
      [
        "else",
        "if"
      ],
      [
        "or",
        "dSwing"
      ],
      [
        "Ġ5",
        "05"
      ],
      [
        "Ġ5",
        "45"
      ],
      [
        "Ġ5",
        "15"
      ],
      [
        "Ġ5",
        "22"
      ],
      [
        "Ġ5",
        "166"
      ],
      [
        "Ġ5",
        "880"
      ],
      [
        "ĠW",
        "ins"
      ],
      [
        "ĠW",
        "alkSpeed"
      ],
      [
        "Ġ-",
        "="
      ],
      [
        "User",
        "nam"
      ],
      [
        "Ġ10",
        "35"
      ],
      [
        "Ġ10",
        "18"
      ],
      [
        "Ġ10",
        "198"
      ],
      [
        "Ġ10",
        "181"
      ],
      [
        "Ġ10",
        "147"
      ],
      [
        "Ġ10",
        "164"
      ],
      [
        "Ġ10",
        "249"
      ],
      [
        "Ġ10",
        "232"
      ],
      [
        "Ġ10",
        "283"
      ],
      [
        "Inv",
        "entory"
      ],
      [
        "Sp",
        "her"
      ],
      [
        "Ġ6",
        "25"
      ],
      [
        "Ġ6",
        "15"
      ],
      [
        "Ġ6",
        "152"
      ],
      [
        "Ġ6",
        "169"
      ],
      [
        "Ġ6",
        "186"
      ],
      [
        "Ġ6",
        "254"
      ],
      [
        "Ġ6",
        "220"
      ],
      [
        "Ġ7",
        "15"
      ],
      [
        "Ġ7",
        "172"
      ],
      [
        "Ġ7",
        "121"
      ],
      [
        "Ġ7",
        "189"
      ],
      [
        "Ġ7",
        "223"
      ],
      [
        "Player",
        "Data"
      ],
      [
        "Lo",
        "op"
      ],
      [
        "Se",
        "cond"
      ],
      [
        "click",
        "er"
      ],
      [
        "Ġ8",
        "55"
      ],
      [
        "Ġ8",
        "77"
      ],
      [
        "Ġ8",
        "14"
      ],
      [
        "Ġ8",
        "39"
      ],
      [
        "Ġ8",
        "29"
      ],
      [
        "Ġ8",
        "31"
      ],
      [
        "Ġ8",
        "158"
      ],
      [
        "Ġ8",
        "141"
      ],
      [
        "Ġ8",
        "124"
      ],
      [
        "Ġ8",
        "260"
      ],
      [
        "Ġ8",
        "226"
      ],
      [
        "Ġ8",
        "209"
      ],
      [
        "Ġ8",
        "243"
      ],
      [
        "Ġ8",
        "889"
      ],
      [
        "Ġ8",
        "362"
      ],
      [
        "25",
        "0"
      ],
      [
        "25",
        "5"
      ],
      [
        "25",
        "6"
      ],
      [
        "25",
        "7"
      ],
      [
        "Ġ9",
        "16"
      ],
      [
        "Ġ9",
        "00"
      ],
      [
        "Ġ9",
        "36"
      ],
      [
        "Ġ9",
        "29"
      ],
      [
        "Ġ9",
        "34"
      ],
      [
        "Ġ9",
        "38"
      ],
      [
        "Ġ9",
        "79"
      ],
      [
        "Ġ9",
        "161"
      ],
      [
        "Ġ9",
        "127"
      ],
      [
        "Ġ9",
        "195"
      ],
      [
        "Ġ9",
        "144"
      ],
      [
        "Ġ9",
        "178"
      ],
      [
        "Ġ9",
        "229"
      ],
      [
        "Ġ9",
        "263"
      ],
      [
        "Ġ9",
        "280"
      ],
      [
        "Ġ9",
        "399"
      ],
      [
        "Get",
        "Inventory"
      ],
      [
        "Ġ11",
        "20"
      ],
      [
        "Ġ11",
        "37"
      ],
      [
        "Ġclick",
        "er"
      ],
      [
        "Ġ18",
        "00"
      ],
      [
        "Ġ18",
        "17"
      ],
      [
        "Ġ18",
        "34"
      ],
      [
        "Ġ16",
        "30"
      ],
      [
        "Ġ16",
        "13"
      ],
      [
        "Ġ16",
        "47"
      ],
      [
        "Ġ16",
        "98"
      ],
      [
        "Ġ16",
        "64"
      ],
      [
        "Sw",
        "ordSwing"
      ],
      [
        "ĠAn",
        "alysi"
      ],
      [
        "Ġ12",
        "05"
      ],
      [
        "Ġ12",
        "22"
      ],
      [
        "Ġ12",
        "39"
      ],
      [
        "Ġ15",
        "45"
      ],
      [
        "Ġ15",
        "11"
      ],
      [
        "Ġ15",
        "28"
      ],
      [
        "Ġ15",
        "79"
      ],
      [
        "Ġ24",
        "12"
      ],
      [
        "Ġ24",
        "29"
      ],
      [
        "Ġ24",
        "46"
      ],
      [
        "Ġ24",
        "97"
      ],
      [
        "Ġ14",
        "77"
      ],
      [
        "Ġ14",
        "94"
      ],
      [
        "Ġ30",
        "75"
      ],
      [
        "Ġ30",
        "24"
      ],
      [
        "Ġ30",
        "41"
      ],
      [
        "Ġ30",
        "92"
      ],
      [
        "Ġ19",
        "19"
      ],
      [
        "Ġ19",
        "36"
      ],
      [
        "Ġ13",
        "75"
      ],
      [
        "Ġ13",
        "24"
      ],
      [
        "Ġ13",
        "92"
      ],
      [
        "Ġ28",
        "88"
      ],
      [
        "Ġ28",
        "20"
      ],
      [
        "Ġ28",
        "37"
      ],
      [
        "Ġ28",
        "71"
      ],
      [
        "Ġ20",
        "38"
      ],
      [
        "Ġ20",
        "21"
      ],
      [
        "Ġ17",
        "15"
      ],
      [
        "Ġ17",
        "32"
      ],
      [
        "Ġ22",
        "25"
      ],
      [
        "Ġ22",
        "42"
      ],
      [
        "Ġ22",
        "93"
      ],
      [
        "Ġ22",
        "76"
      ],
      [
        "Ġ26",
        "16"
      ],
      [
        "Ġ26",
        "50"
      ],
      [
        "Ġ26",
        "33"
      ],
      [
        "Ġ26",
        "67"
      ],
      [
        "Ġ26",
        "84"
      ],
      [
        "Ġ27",
        "35"
      ],
      [
        "Ġ27",
        "18"
      ],
      [
        "Ġ27",
        "69"
      ],
      [
        "Ġ27",
        "86"
      ],
      [
        "Ġ27",
        "52"
      ],
      [
        "Ġ33",
        "30"
      ],
      [
        "Ġ33",
        "13"
      ],
      [
        "Ġ33",
        "47"
      ],
      [
        "Ġ33",
        "98"
      ],
      [
        "Ġ33",
        "64"
      ],
      [
        "Ġ33",
        "81"
      ],
      [
        "Ġ45",
        "88"
      ],
      [
        "Ġ45",
        "20"
      ],
      [
        "Ġ45",
        "37"
      ],
      [
        "Ġ45",
        "71"
      ],
      [
        "Ġ23",
        "10"
      ],
      [
        "Ġ23",
        "27"
      ],
      [
        "Ġ32",
        "45"
      ],
      [
        "Ġ32",
        "11"
      ],
      [
        "Ġ32",
        "28"
      ],
      [
        "Ġ32",
        "79"
      ],
      [
        "Ġ32",
        "96"
      ],
      [
        "Ġ32",
        "62"
      ],
      [
        "Click",
        "ed"
      ],
      [
        "Ġ29",
        "05"
      ],
      [
        "Ġ29",
        "39"
      ],
      [
        "Ġ29",
        "73"
      ],
      [
        "Ġ29",
        "90"
      ],
      [
        "Ġ29",
        "56"
      ],
      [
        "22",
        "7"
      ],
      [
        "Tou",
        "chEnd"
      ],
      [
        "Ġ34",
        "15"
      ],
      [
        "Ġ34",
        "32"
      ],
      [
        "Ġ34",
        "66"
      ],
      [
        "Ġ21",
        "40"
      ],
      [
        "Ġ21",
        "23"
      ],
      [
        "Ġ21",
        "74"
      ],
      [
        "Ġ25",
        "14"
      ],
      [
        "Ġ25",
        "31"
      ],
      [
        "Ġ25",
        "48"
      ],
      [
        "Ġ25",
        "99"
      ],
      [
        "Ġ25",
        "82"
      ],
      [
        "Ġ36",
        "19"
      ],
      [
        "Ġ36",
        "36"
      ],
      [
        "Ġ36",
        "87"
      ],
      [
        "Ġ36",
        "70"
      ],
      [
        "Ġ46",
        "05"
      ],
      [
        "Ġ46",
        "22"
      ],
      [
        "Ġ46",
        "39"
      ],
      [
        "Ġ46",
        "73"
      ],
      [
        "Ġ46",
        "90"
      ],
      [
        "Ġ46",
        "56"
      ],
      [
        "Ġ39",
        "25"
      ],
      [
        "Ġ39",
        "42"
      ],
      [
        "Ġ39",
        "93"
      ],
      [
        "Ġ39",
        "59"
      ],
      [
        "Ġ35",
        "17"
      ],
      [
        "Ġ35",
        "34"
      ],
      [
        "Ġ35",
        "85"
      ],
      [
        "Ġ35",
        "68"
      ],
      [
        "Ġ38",
        "40"
      ],
      [
        "Ġ38",
        "23"
      ],
      [
        "Ġ38",
        "74"
      ],
      [
        "Ġ38",
        "91"
      ],
      [
        "Ġ38",
        "57"
      ],
      [
        "Ġ31",
        "77"
      ],
      [
        "Ġ31",
        "26"
      ],
      [
        "Ġ31",
        "43"
      ],
      [
        "Ġ31",
        "94"
      ],
      [
        "Ġ40",
        "10"
      ],
      [
        "Ġ40",
        "27"
      ],
      [
        "Ġ40",
        "95"
      ],
      [
        "Ġ40",
        "44"
      ],
      [
        "Ġ40",
        "78"
      ],
      [
        "Ġ40",
        "61"
      ],
      [
        "Ġ60",
        "16"
      ],
      [
        "Ġ60",
        "33"
      ],
      [
        "Ġ60",
        "67"
      ],
      [
        "20",
        "1"
      ],
      [
        "20",
        "2"
      ],
      [
        "20",
        "3"
      ],
      [
        "Ġ44",
        "35"
      ],
      [
        "Ġ44",
        "18"
      ],
      [
        "Ġ44",
        "69"
      ],
      [
        "Ġ44",
        "86"
      ],
      [
        "Ġ75",
        "12"
      ],
      [
        "Ġ75",
        "29"
      ],
      [
        "Ġ75",
        "46"
      ],
      [
        "Ġ75",
        "97"
      ],
      [
        "Ġ75",
        "80"
      ],
      [
        "Ġ75",
        "63"
      ],
      [
        "Ġ37",
        "55"
      ],
      [
        "Ġ37",
        "38"
      ],
      [
        "Ġ37",
        "21"
      ],
      [
        "Ġ37",
        "89"
      ],
      [
        "Ġ43",
        "16"
      ],
      [
        "Ġ43",
        "50"
      ],
      [
        "Ġ43",
        "33"
      ],
      [
        "Ġ43",
        "67"
      ],
      [
        "Ġ43",
        "84"
      ],
      [
        "Ġ42",
        "14"
      ],
      [
        "Ġ42",
        "31"
      ],
      [
        "Ġ42",
        "48"
      ],
      [
        "Ġ42",
        "99"
      ],
      [
        "Ġ42",
        "82"
      ],
      [
        "Ġ47",
        "6"
      ],
      [
        "Ġ47",
        "8"
      ],
      [
        "Ġ47",
        "75"
      ],
      [
        "Ġ47",
        "24"
      ],
      [
        "Ġ47",
        "41"
      ],
      [
        "Ġ47",
        "92"
      ],
      [
        "Ġ41",
        "12"
      ],
      [
        "Ġ41",
        "29"
      ],
      [
        "Ġ41",
        "46"
      ],
      [
        "Ġ41",
        "97"
      ],
      [
        "Ġ41",
        "80"
      ],
      [
        "Ġ48",
        "2"
      ],
      [
        "Ġ48",
        "6"
      ],
      [
        "Ġ48",
        "9"
      ],
      [
        "Ġ48",
        "77"
      ],
      [
        "Ġ48",
        "26"
      ],
      [
        "Ġ48",
        "43"
      ],
      [
        "Ġ48",
        "94"
      ],
      [
        "Ġ48",
        "60"
      ],
      [
        "Ġ59",
        "1"
      ],
      [
        "Ġ59",
        "2"
      ],
      [
        "Ġ59",
        "3"
      ],
      [
        "Ġ59",
        "5"
      ],
      [
        "Ġ59",
        "7"
      ],
      [
        "Ġ59",
        "14"
      ],
      [
        "Ġ59",
        "31"
      ],
      [
        "Ġ59",
        "48"
      ],
      [
        "Ġ59",
        "99"
      ],
      [
        "Ġ59",
        "82"
      ],
      [
        "Ġ59",
        "65"
      ],
      [
        "Ġ78",
        "4"
      ],
      [
        "Ġ78",
        "5"
      ],
      [
        "Ġ78",
        "35"
      ],
      [
        "Ġ78",
        "18"
      ],
      [
        "Ġ78",
        "69"
      ],
      [
        "Ġ78",
        "52"
      ],
      [
        "Ġ50",
        "1"
      ],
      [
        "Ġ50",
        "7"
      ],
      [
        "Ġ50",
        "13"
      ],
      [
        "Ġ50",
        "47"
      ],
      [
        "Ġ50",
        "98"
      ],
      [
        "Ġ50",
        "64"
      ],
      [
        "Ġ50",
        "81"
      ],
      [
        "Ġ49",
        "1"
      ],
      [
        "Ġ49",
        "2"
      ],
      [
        "Ġ49",
        "4"
      ],
      [
        "Ġ49",
        "45"
      ],
      [
        "Ġ49",
        "11"
      ],
      [
        "Ġ49",
        "28"
      ],
      [
        "Ġ49",
        "79"
      ],
      [
        "Ġ49",
        "96"
      ],
      [
        "Ġ49",
        "62"
      ],
      [
        "Ġ66",
        "1"
      ],
      [
        "Ġ66",
        "4"
      ],
      [
        "Ġ66",
        "45"
      ],
      [
        "Ġ66",
        "28"
      ],
      [
        "Ġ66",
        "79"
      ],
      [
        "Ġ66",
        "96"
      ],
      [
        "Ġ66",
        "62"
      ],
      [
        "Ġ69",
        "00"
      ],
      [
        "Ġ69",
        "17"
      ],
      [
        "Ġ69",
        "34"
      ],
      [
        "Ġ69",
        "85"
      ],
      [
        "Ġ69",
        "68"
      ],
      [
        "Ġ69",
        "51"
      ],
      [
        "Ġ76",
        "3"
      ],
      [
        "Ġ76",
        "5"
      ],
      [
        "Ġ76",
        "8"
      ],
      [
        "Ġ76",
        "14"
      ],
      [
        "Ġ76",
        "31"
      ],
      [
        "Ġ76",
        "48"
      ],
      [
        "Ġ76",
        "99"
      ],
      [
        "Ġ76",
        "82"
      ],
      [
        "Ġ56",
        "1"
      ],
      [
        "Ġ56",
        "8"
      ],
      [
        "Ġ56",
        "25"
      ],
      [
        "Ġ56",
        "42"
      ],
      [
        "Ġ56",
        "93"
      ],
      [
        "Ġ56",
        "76"
      ],
      [
        "Ġ56",
        "59"
      ],
      [
        "Ġ90",
        "25"
      ],
      [
        "Ġ90",
        "42"
      ],
      [
        "Ġ90",
        "93"
      ],
      [
        "Ġ90",
        "76"
      ],
      [
        "Ġ57",
        "10"
      ],
      [
        "Ġ57",
        "27"
      ],
      [
        "Ġ57",
        "95"
      ],
      [
        "Ġ57",
        "44"
      ],
      [
        "Ġ57",
        "61"
      ],
      [
        "Ġ51",
        "3"
      ],
      [
        "Ġ51",
        "4"
      ],
      [
        "Ġ51",
        "8"
      ],
      [
        "Ġ51",
        "15"
      ],
      [
        "Ġ51",
        "32"
      ],
      [
        "Ġ51",
        "49"
      ],
      [
        "Ġ51",
        "83"
      ],
      [
        "Ġ54",
        "2"
      ],
      [
        "Ġ54",
        "3"
      ],
      [
        "Ġ54",
        "9"
      ],
      [
        "Ġ54",
        "55"
      ],
      [
        "Ġ54",
        "38"
      ],
      [
        "Ġ54",
        "21"
      ],
      [
        "Ġ54",
        "72"
      ],
      [
        "Ġ54",
        "89"
      ],
      [
        "Ġ52",
        "6"
      ],
      [
        "Ġ52",
        "00"
      ],
      [
        "Ġ52",
        "17"
      ],
      [
        "Ġ52",
        "34"
      ],
      [
        "Ġ52",
        "85"
      ],
      [
        "Ġ52",
        "68"
      ],
      [
        "Ġ68",
        "5"
      ],
      [
        "Ġ68",
        "15"
      ],
      [
        "Ġ68",
        "32"
      ],
      [
        "Ġ68",
        "49"
      ],
      [
        "Ġ68",
        "66"
      ],
      [
        "Ġ195",
        "3"
      ],
      [
        "Ġ67",
        "8"
      ],
      [
        "Ġ67",
        "30"
      ],
      [
        "Ġ67",
        "13"
      ],
      [
        "Ġ67",
        "47"
      ],
      [
        "Ġ67",
        "98"
      ],
      [
        "Ġ67",
        "64"
      ],
      [
        "Ġ67",
        "81"
      ],
      [
        "Ġ79",
        "2"
      ],
      [
        "Ġ79",
        "5"
      ],
      [
        "Ġ79",
        "7"
      ],
      [
        "Ġ79",
        "88"
      ],
      [
        "Ġ79",
        "20"
      ],
      [
        "Ġ79",
        "37"
      ],
      [
        "Ġ79",
        "71"
      ],
      [
        "Ġ79",
        "54"
      ],
      [
        "Ġ70",
        "4"
      ],
      [
        "Ġ70",
        "19"
      ],
      [
        "Ġ70",
        "36"
      ],
      [
        "Ġ70",
        "87"
      ],
      [
        "Ġ70",
        "70"
      ],
      [
        "Ġ210",
        "6"
      ],
      [
        "Ġ105",
        "2"
      ],
      [
        "Ġ135",
        "8"
      ],
      [
        "Ġ58",
        "4"
      ],
      [
        "Ġ58",
        "5"
      ],
      [
        "Ġ58",
        "12"
      ],
      [
        "Ġ58",
        "29"
      ],
      [
        "Ġ58",
        "46"
      ],
      [
        "Ġ58",
        "97"
      ],
      [
        "Ġ58",
        "63"
      ],
      [
        "Ġ72",
        "8"
      ],
      [
        "Ġ72",
        "9"
      ],
      [
        "Ġ72",
        "40"
      ],
      [
        "Ġ72",
        "74"
      ],
      [
        "Ġ72",
        "91"
      ],
      [
        "Ġ63",
        "2"
      ],
      [
        "Ġ63",
        "05"
      ],
      [
        "Ġ63",
        "22"
      ],
      [
        "Ġ63",
        "39"
      ],
      [
        "Ġ63",
        "73"
      ],
      [
        "Ġ63",
        "90"
      ],
      [
        "Ġ73",
        "6"
      ],
      [
        "Ġ73",
        "25"
      ],
      [
        "Ġ73",
        "42"
      ],
      [
        "Ġ73",
        "93"
      ],
      [
        "Ġ73",
        "76"
      ],
      [
        "Ġ77",
        "6"
      ],
      [
        "Ġ77",
        "16"
      ],
      [
        "Ġ77",
        "50"
      ],
      [
        "Ġ77",
        "33"
      ],
      [
        "Ġ77",
        "67"
      ],
      [
        "Ġ77",
        "84"
      ],
      [
        "Ġ225",
        "9"
      ],
      [
        "Ġ300",
        "7"
      ],
      [
        "Key",
        "Sound"
      ],
      [
        "Ġ65",
        "6"
      ],
      [
        "Ġ65",
        "77"
      ],
      [
        "Ġ65",
        "26"
      ],
      [
        "Ġ65",
        "43"
      ],
      [
        "Ġ65",
        "94"
      ],
      [
        "Ġ65",
        "60"
      ],
      [
        "Ġ270",
        "1"
      ],
      [
        "Ġ74",
        "6"
      ],
      [
        "Ġ74",
        "10"
      ],
      [
        "Ġ74",
        "27"
      ],
      [
        "Ġ74",
        "95"
      ],
      [
        "Ġ74",
        "44"
      ],
      [
        "Ġ74",
        "78"
      ],
      [
        "Ġ74",
        "61"
      ],
      [
        "Ġ53",
        "7"
      ],
      [
        "Ġ53",
        "19"
      ],
      [
        "Ġ53",
        "36"
      ],
      [
        "Ġ53",
        "87"
      ],
      [
        "Ġ53",
        "70"
      ],
      [
        "Ġ62",
        "7"
      ],
      [
        "Ġ62",
        "88"
      ],
      [
        "Ġ62",
        "37"
      ],
      [
        "Ġ62",
        "71"
      ],
      [
        "Ġ64",
        "4"
      ],
      [
        "Ġ64",
        "8"
      ],
      [
        "Ġ64",
        "75"
      ],
      [
        "Ġ64",
        "24"
      ],
      [
        "Ġ64",
        "41"
      ],
      [
        "Ġ64",
        "92"
      ],
      [
        "Ġ55",
        "9"
      ],
      [
        "Ġ55",
        "40"
      ],
      [
        "Ġ55",
        "23"
      ],
      [
        "Ġ55",
        "74"
      ],
      [
        "Ġ55",
        "91"
      ],
      [
        "Ġ285",
        "4"
      ],
      [
        "Ġ61",
        "35"
      ],
      [
        "Ġ61",
        "18"
      ],
      [
        "Ġ80",
        "05"
      ],
      [
        "Ġ80",
        "22"
      ],
      [
        "Ġ80",
        "39"
      ],
      [
        "Ġ80",
        "73"
      ],
      [
        "Ġ80",
        "90"
      ],
      [
        "Ġ71",
        "55"
      ],
      [
        "Ġ81",
        "75"
      ],
      [
        "24",
        "1"
      ],
      [
        "24",
        "7"
      ],
      [
        "24",
        "8"
      ],
      [
        "26",
        "4"
      ],
      [
        "23",
        "4"
      ],
      [
        "23",
        "9"
      ],
      [
        "Sh",
        "ape"
      ],
      [
        "33",
        "66"
      ],
      [
        "Ġ96",
        "5"
      ],
      [
        "Ġ96",
        "7"
      ],
      [
        "Ġ96",
        "88"
      ],
      [
        "Ġ96",
        "20"
      ],
      [
        "Ġ96",
        "37"
      ],
      [
        "Ġ96",
        "71"
      ],
      [
        "Ġ96",
        "54"
      ],
      [
        "Ġ96",
        "03"
      ],
      [
        "Ġ100",
        "1"
      ],
      [
        "Ġ100",
        "45"
      ],
      [
        "Ġ100",
        "11"
      ],
      [
        "Ġ100",
        "28"
      ],
      [
        "Ġ100",
        "79"
      ],
      [
        "Ġ100",
        "96"
      ],
      [
        "Ġ100",
        "62"
      ],
      [
        "Ġ84",
        "8"
      ],
      [
        "Ġ84",
        "30"
      ],
      [
        "Ġ84",
        "13"
      ],
      [
        "Ġ84",
        "47"
      ],
      [
        "Ġ84",
        "98"
      ],
      [
        "Ġ84",
        "64"
      ],
      [
        "Ġ84",
        "81"
      ],
      [
        "Ġ87",
        "36"
      ],
      [
        "Ġ87",
        "87"
      ],
      [
        "Ġ87",
        "02"
      ],
      [
        "Ġ86",
        "00"
      ],
      [
        "Ġ86",
        "17"
      ],
      [
        "Ġ86",
        "34"
      ],
      [
        "Ġ86",
        "85"
      ],
      [
        "Ġ86",
        "68"
      ],
      [
        "Ġ86",
        "51"
      ],
      [
        "Ġ88",
        "2"
      ],
      [
        "Ġ88",
        "5"
      ],
      [
        "Ġ88",
        "55"
      ],
      [
        "Ġ88",
        "38"
      ],
      [
        "Ġ88",
        "21"
      ],
      [
        "Ġ88",
        "72"
      ],
      [
        "Ġ88",
        "04"
      ],
      [
        "Ġ99",
        "77"
      ],
      [
        "Ġ99",
        "26"
      ],
      [
        "Ġ99",
        "43"
      ],
      [
        "Ġ99",
        "94"
      ],
      [
        "Ġ99",
        "60"
      ],
      [
        "Ġ99",
        "09"
      ],
      [
        "Ġ168",
        "1"
      ],
      [
        "Ġ98",
        "4"
      ],
      [
        "Ġ98",
        "5"
      ],
      [
        "Ġ98",
        "75"
      ],
      [
        "Ġ98",
        "24"
      ],
      [
        "Ġ98",
        "41"
      ],
      [
        "Ġ98",
        "92"
      ],
      [
        "Ġ98",
        "58"
      ],
      [
        "Ġ98",
        "07"
      ],
      [
        "Ġ89",
        "5"
      ],
      [
        "Ġ89",
        "9"
      ],
      [
        "Ġ89",
        "40"
      ],
      [
        "Ġ89",
        "23"
      ],
      [
        "Ġ89",
        "74"
      ],
      [
        "Ġ89",
        "91"
      ],
      [
        "Ġ89",
        "57"
      ],
      [
        "Ġ89",
        "06"
      ],
      [
        "Ġ129",
        "0"
      ],
      [
        "Ġ144",
        "3"
      ],
      [
        "Ġ110",
        "3"
      ],
      [
        "Ġ85",
        "15"
      ],
      [
        "Ġ85",
        "32"
      ],
      [
        "Ġ85",
        "49"
      ],
      [
        "Ġ85",
        "66"
      ],
      [
        "Ġ85",
        "83"
      ],
      [
        "Ġ102",
        "15"
      ],
      [
        "Ġ93",
        "14"
      ],
      [
        "Ġ156",
        "2"
      ],
      [
        "Ġ94",
        "16"
      ],
      [
        "Ġ94",
        "33"
      ],
      [
        "Ġ94",
        "67"
      ],
      [
        "Ġ94",
        "84"
      ],
      [
        "Ġ140",
        "9"
      ],
      [
        "Ġ95",
        "35"
      ],
      [
        "Ġ95",
        "18"
      ],
      [
        "Ġ95",
        "69"
      ],
      [
        "Ġ95",
        "86"
      ],
      [
        "Ġ174",
        "9"
      ],
      [
        "Ġ108",
        "6"
      ],
      [
        "Ġ190",
        "2"
      ],
      [
        "Ġ200",
        "4"
      ],
      [
        "Ġ117",
        "1"
      ],
      [
        "Ġ159",
        "6"
      ],
      [
        "Ġ130",
        "7"
      ],
      [
        "Moon",
        "Ph"
      ],
      [
        "Ġ146",
        "0"
      ],
      [
        "Ġ280",
        "3"
      ],
      [
        "Ġ178",
        "3"
      ],
      [
        "Ġ188",
        "5"
      ],
      [
        "Ġ350",
        "0"
      ],
      [
        "Ġ127",
        "3"
      ],
      [
        "Ġ198",
        "7"
      ],
      [
        "Ġ176",
        "6"
      ],
      [
        "Ġ106",
        "9"
      ],
      [
        "Ġ220",
        "8"
      ],
      [
        "Ġ219",
        "1"
      ],
      [
        "Ġ360",
        "2"
      ],
      [
        "Ġ440",
        "1"
      ],
      [
        "Ġ92",
        "12"
      ],
      [
        "Ġ185",
        "1"
      ],
      [
        "Ġ234",
        "4"
      ],
      [
        "Ġ237",
        "8"
      ],
      [
        "Ġ380",
        "6"
      ],
      [
        "Ġ125",
        "6"
      ],
      [
        "Ġ310",
        "9"
      ],
      [
        "Ġ97",
        "05"
      ],
      [
        "Ġ97",
        "22"
      ],
      [
        "Ġ97",
        "39"
      ],
      [
        "Ġ248",
        "0"
      ],
      [
        "Ġ197",
        "0"
      ],
      [
        "Ġ101",
        "30"
      ],
      [
        "Ġ101",
        "13"
      ],
      [
        "Ġ83",
        "45"
      ],
      [
        "Ġ83",
        "11"
      ],
      [
        "Ġ83",
        "28"
      ],
      [
        "Ġ207",
        "2"
      ],
      [
        "Ġ256",
        "5"
      ],
      [
        "Ġ390",
        "8"
      ],
      [
        "Ġ370",
        "4"
      ],
      [
        "Ġ470",
        "7"
      ],
      [
        "Ġ205",
        "5"
      ],
      [
        "Ġ416",
        "3"
      ],
      [
        "Ġ115",
        "4"
      ],
      [
        "Ġ246",
        "3"
      ],
      [
        "Ġ236",
        "1"
      ],
      [
        "Ġ348",
        "3"
      ],
      [
        "Ġco",
        "lor"
      ],
      [
        "Ġ316",
        "0"
      ],
      [
        "Ġ82",
        "77"
      ],
      [
        "Ġ208",
        "9"
      ],
      [
        "Ġ91",
        "10"
      ],
      [
        "Ġ426",
        "5"
      ],
      [
        "Ġ365",
        "3"
      ],
      [
        "Ġ480",
        "9"
      ],
      [
        "Ġ215",
        "7"
      ],
      [
        "Ġ355",
        "1"
      ],
      [
        "Ġ780",
        "1"
      ],
      [
        "Ġ560",
        "8"
      ],
      [
        "Ġ540",
        "4"
      ],
      [
        "Ġ455",
        "4"
      ],
      [
        "Ġ445",
        "2"
      ],
      [
        "Ġ610",
        "1"
      ],
      [
        "Ġ620",
        "3"
      ],
      [
        "Ġ640",
        "7"
      ],
      [
        "Ġ720",
        "6"
      ],
      [
        "Ġ530",
        "2"
      ],
      [
        "Ġ305",
        "8"
      ],
      [
        "Ġ650",
        "9"
      ],
      [
        "Ġ710",
        "4"
      ],
      [
        "Ġ700",
        "2"
      ],
      [
        "Ġ730",
        "8"
      ],
      [
        "Ġ810",
        "7"
      ],
      [
        "Ġ790",
        "3"
      ],
      [
        "Ġ550",
        "6"
      ],
      [
        "Ġ377",
        "2"
      ],
      [
        "Ġ525",
        "1"
      ],
      [
        "Shadow",
        "s"
      ],
      [
        "Shadow",
        "Sof"
      ],
      [
        "Fog",
        "Color"
      ],
      [
        "Fog",
        "Start"
      ],
      [
        "Fog",
        "End"
      ],
      [
        "Ġ605",
        "0"
      ],
      [
        "Ġ955",
        "2"
      ],
      [
        "Ġ933",
        "1"
      ],
      [
        "Ġ535",
        "3"
      ],
      [
        "Ġ475",
        "8"
      ],
      [
        "Ġ645",
        "8"
      ],
      [
        "Ġ635",
        "6"
      ],
      [
        "Ġ725",
        "7"
      ],
      [
        "Ġ705",
        "3"
      ],
      [
        "Ġ805",
        "6"
      ],
      [
        "Ġ875",
        "3"
      ],
      [
        "Ġ945",
        "0"
      ],
      [
        "Ġ950",
        "1"
      ],
      [
        "Ġ975",
        "6"
      ],
      [
        "Ġ577",
        "8"
      ],
      [
        "Ġ1026",
        "6"
      ],
      [
        "Ġ688",
        "3"
      ],
      [
        "Ġ788",
        "6"
      ],
      [
        "Ġ735",
        "9"
      ],
      [
        "Ġ837",
        "9"
      ],
      [
        "Ġ905",
        "9"
      ],
      [
        "Av",
        "atar"
      ],
      [
        "Cast",
        "Shadow"
      ],
      [
        "De",
        "cimal"
      ],
      [
        "Fr",
        "iction"
      ],
      [
        "Glo",
        "bal"
      ],
      [
        "Lin",
        "ked"
      ],
      [
        "Mas",
        "s"
      ],
      [
        "Vo",
        "lume"
      ],
      [
        "af",
        "ter"
      ],
      [
        "be",
        "fore"
      ],
      [
        "pur",
        "ple"
      ],
      [
        "sav",
        "ed"
      ],
      [
        "Ġto",
        "uched"
      ],
      [
        "Ġin",
        "ventory"
      ],
      [
        "repe",
        "at"
      ],
      [
        "Restit",
        "ution"
      ],
      [
        "Usernam",
        "e"
      ],
      [
        "Spher",
        "e"
      ],
      [
        "Loop",
        "ed"
      ],
      [
        "Ġ877",
        "0"
      ],
      [
        "Ġ839",
        "6"
      ],
      [
        "Ġ829",
        "4"
      ],
      [
        "Ġ900",
        "8"
      ],
      [
        "Ġ936",
        "5"
      ],
      [
        "Ġ929",
        "7"
      ],
      [
        "Ġ934",
        "8"
      ],
      [
        "Ġ938",
        "2"
      ],
      [
        "Ġ979",
        "0"
      ],
      [
        "ĠAnalysi",
        "s"
      ],
      [
        "TouchEnd",
        "ed"
      ],
      [
        "MoonPh",
        "ase"
      ],
      [
        "ShadowSof",
        "tness"
      ],
      [
        "Global",
        "Shadows"
      ],
      [
        "Linked",
        "SwordSwing"
      ]
    ]
  }
}